-- classifier_weight
-- Original shape: (8, 8)
DEPTH = 64;
WIDTH = 16;
ADDRESS_RADIX = HEX;
DATA_RADIX = HEX;
CONTENT BEGIN
  0000 : 006F;
  0001 : 0041;
  0002 : FFBB;
  0003 : FFD9;
  0004 : 0011;
  0005 : FF94;
  0006 : FF99;
  0007 : FFCF;
  0008 : 004C;
  0009 : FFB0;
  000A : 0072;
  000B : 003E;
  000C : 003A;
  000D : 0020;
  000E : 0047;
  000F : FF66;
  0010 : FFA2;
  0011 : 0057;
  0012 : FF66;
  0013 : 0053;
  0014 : 0034;
  0015 : 002C;
  0016 : FFFE;
  0017 : FFB6;
  0018 : FFC3;
  0019 : 001E;
  001A : FFFE;
  001B : 0048;
  001C : FF78;
  001D : FFAC;
  001E : 0052;
  001F : FFF0;
  0020 : 0014;
  0021 : 003C;
  0022 : FFD4;
  0023 : FFCF;
  0024 : FFB1;
  0025 : 0052;
  0026 : 001F;
  0027 : 0040;
  0028 : 0030;
  0029 : FFBB;
  002A : 000F;
  002B : 001F;
  002C : 003E;
  002D : FFB7;
  002E : FFFF;
  002F : 005F;
  0030 : FFB4;
  0031 : FFEE;
  0032 : FF99;
  0033 : 0029;
  0034 : FFE0;
  0035 : 0005;
  0036 : FFC5;
  0037 : 0029;
  0038 : 0000;
  0039 : FF9F;
  003A : FFC5;
  003B : 0006;
  003C : 0027;
  003D : FFBC;
  003E : 0027;
  003F : 001E;
END;
