-- linear1_weight
-- Original shape: (16, 64)
DEPTH = 1024;
WIDTH = 16;
ADDRESS_RADIX = HEX;
DATA_RADIX = HEX;
CONTENT BEGIN
  0000 : FFEB;
  0001 : FFFE;
  0002 : FFEB;
  0003 : 001D;
  0004 : FFEF;
  0005 : FFF0;
  0006 : 001E;
  0007 : 0017;
  0008 : 0006;
  0009 : FFF8;
  000A : 0014;
  000B : 0027;
  000C : 0007;
  000D : FFE5;
  000E : 0016;
  000F : FFEF;
  0010 : 000E;
  0011 : 0007;
  0012 : 001E;
  0013 : FFEC;
  0014 : 0016;
  0015 : FFFA;
  0016 : 001E;
  0017 : 0003;
  0018 : 0004;
  0019 : 0018;
  001A : 0012;
  001B : FFF8;
  001C : FFFC;
  001D : 0002;
  001E : FFFF;
  001F : 001F;
  0020 : 0000;
  0021 : FFEF;
  0022 : FFF1;
  0023 : 0002;
  0024 : 001D;
  0025 : 0001;
  0026 : 001E;
  0027 : FFFB;
  0028 : 002E;
  0029 : 000E;
  002A : 000A;
  002B : FFE2;
  002C : FFF9;
  002D : FFED;
  002E : 0000;
  002F : FFF0;
  0030 : 0010;
  0031 : FFF6;
  0032 : FFFA;
  0033 : 001B;
  0034 : 000B;
  0035 : 001E;
  0036 : FFE7;
  0037 : 001D;
  0038 : 0003;
  0039 : FFFC;
  003A : FFF8;
  003B : FFFA;
  003C : 001F;
  003D : 0001;
  003E : 0006;
  003F : 0019;
  0040 : 0012;
  0041 : FFFF;
  0042 : FFDB;
  0043 : 000C;
  0044 : 000D;
  0045 : 001F;
  0046 : 0011;
  0047 : 000E;
  0048 : 000D;
  0049 : FFE5;
  004A : FFF5;
  004B : 0000;
  004C : FFE2;
  004D : 000D;
  004E : FFF7;
  004F : FFFC;
  0050 : FFFF;
  0051 : FFD6;
  0052 : FFFD;
  0053 : 0005;
  0054 : 0010;
  0055 : 000E;
  0056 : FFDE;
  0057 : FFDE;
  0058 : 000A;
  0059 : 000A;
  005A : 0000;
  005B : 0004;
  005C : FFE2;
  005D : FFEE;
  005E : FFED;
  005F : 001E;
  0060 : 0013;
  0061 : FFF5;
  0062 : FFFC;
  0063 : 000B;
  0064 : FFFE;
  0065 : 0012;
  0066 : 000A;
  0067 : FFD8;
  0068 : FFEE;
  0069 : FFEC;
  006A : FFEE;
  006B : FFF3;
  006C : FFE9;
  006D : FFE9;
  006E : 0006;
  006F : FFEF;
  0070 : FFEF;
  0071 : 0010;
  0072 : 001D;
  0073 : FFE8;
  0074 : FFF6;
  0075 : FFDF;
  0076 : FFDF;
  0077 : FFE4;
  0078 : FFE1;
  0079 : FFE8;
  007A : 0015;
  007B : FFF8;
  007C : FFF2;
  007D : 001A;
  007E : 0011;
  007F : FFE8;
  0080 : 0008;
  0081 : 000E;
  0082 : FFFC;
  0083 : FFFA;
  0084 : 000A;
  0085 : FFF8;
  0086 : 0014;
  0087 : FFDF;
  0088 : FFEA;
  0089 : FFE2;
  008A : 0004;
  008B : 0008;
  008C : FFE4;
  008D : FFF5;
  008E : 000E;
  008F : FFD3;
  0090 : 0019;
  0091 : 000F;
  0092 : FFF4;
  0093 : 0012;
  0094 : FFEC;
  0095 : 0003;
  0096 : 0002;
  0097 : 0010;
  0098 : FFFF;
  0099 : FFE7;
  009A : 0004;
  009B : 0011;
  009C : FFE3;
  009D : 0010;
  009E : FFE2;
  009F : FFFD;
  00A0 : 000D;
  00A1 : FFF1;
  00A2 : FFDF;
  00A3 : FFEF;
  00A4 : FFF3;
  00A5 : FFEA;
  00A6 : FFFF;
  00A7 : 0000;
  00A8 : 001D;
  00A9 : 0003;
  00AA : 000A;
  00AB : FFFA;
  00AC : 0017;
  00AD : FFF9;
  00AE : FFEB;
  00AF : 0005;
  00B0 : FFF0;
  00B1 : FFF8;
  00B2 : FFFE;
  00B3 : 0020;
  00B4 : FFDA;
  00B5 : 0000;
  00B6 : 0008;
  00B7 : 0014;
  00B8 : FFF6;
  00B9 : FFF5;
  00BA : 0017;
  00BB : FFE9;
  00BC : FFFE;
  00BD : FFF7;
  00BE : FFFC;
  00BF : 0001;
  00C0 : FFF5;
  00C1 : FFED;
  00C2 : FFF5;
  00C3 : FFF2;
  00C4 : 0004;
  00C5 : 0014;
  00C6 : 000E;
  00C7 : FFED;
  00C8 : 0013;
  00C9 : FFF1;
  00CA : 0018;
  00CB : FFF4;
  00CC : FFE3;
  00CD : 001B;
  00CE : 000B;
  00CF : FFE6;
  00D0 : 001B;
  00D1 : FFFC;
  00D2 : FFF0;
  00D3 : FFE5;
  00D4 : 000F;
  00D5 : 0007;
  00D6 : FFE8;
  00D7 : FFE3;
  00D8 : FFFC;
  00D9 : FFE9;
  00DA : 0014;
  00DB : FFF9;
  00DC : FFDE;
  00DD : FFE8;
  00DE : 0011;
  00DF : FFF4;
  00E0 : 000F;
  00E1 : 0001;
  00E2 : FFE5;
  00E3 : FFED;
  00E4 : 0005;
  00E5 : 0020;
  00E6 : 0012;
  00E7 : FFDC;
  00E8 : FFFE;
  00E9 : 0022;
  00EA : FFF4;
  00EB : FFE7;
  00EC : FFF6;
  00ED : FFF3;
  00EE : FFF8;
  00EF : FFF6;
  00F0 : 0008;
  00F1 : 0010;
  00F2 : FFFE;
  00F3 : 0012;
  00F4 : 0003;
  00F5 : FFE8;
  00F6 : FFED;
  00F7 : 000A;
  00F8 : 0004;
  00F9 : FFE0;
  00FA : FFF5;
  00FB : FFFC;
  00FC : FFEB;
  00FD : FFE7;
  00FE : 001C;
  00FF : FFE6;
  0100 : FFE7;
  0101 : 001F;
  0102 : 0019;
  0103 : 0008;
  0104 : 0000;
  0105 : FFEC;
  0106 : 0005;
  0107 : FFEA;
  0108 : FFDD;
  0109 : 0014;
  010A : FFFF;
  010B : 000A;
  010C : 0001;
  010D : FFEC;
  010E : 0013;
  010F : 000C;
  0110 : FFFD;
  0111 : 000A;
  0112 : FFFA;
  0113 : 0004;
  0114 : 0004;
  0115 : 000D;
  0116 : FFFF;
  0117 : 002C;
  0118 : FFEC;
  0119 : 000B;
  011A : FFFF;
  011B : FFF5;
  011C : FFFA;
  011D : FFF5;
  011E : FFE8;
  011F : 0003;
  0120 : FFFF;
  0121 : 0012;
  0122 : 0000;
  0123 : FFED;
  0124 : FFF7;
  0125 : FFFA;
  0126 : FFF3;
  0127 : FFF2;
  0128 : FFFF;
  0129 : FFE8;
  012A : 001D;
  012B : FFF0;
  012C : FFE4;
  012D : 001B;
  012E : 0026;
  012F : FFEF;
  0130 : 0015;
  0131 : FFE5;
  0132 : FFE3;
  0133 : 0011;
  0134 : FFDE;
  0135 : 0015;
  0136 : 0017;
  0137 : 001E;
  0138 : FFFC;
  0139 : 0019;
  013A : FFDC;
  013B : FFE7;
  013C : 0028;
  013D : FFE1;
  013E : 000F;
  013F : 0010;
  0140 : FFEB;
  0141 : FFF9;
  0142 : 000F;
  0143 : 001C;
  0144 : 0007;
  0145 : 0014;
  0146 : 0012;
  0147 : FFD9;
  0148 : FFD9;
  0149 : 0020;
  014A : 0001;
  014B : FFF3;
  014C : FFF9;
  014D : FFEE;
  014E : 0002;
  014F : FFF5;
  0150 : 001B;
  0151 : FFF3;
  0152 : FFE3;
  0153 : 0011;
  0154 : FFF7;
  0155 : 000F;
  0156 : FFED;
  0157 : FFF0;
  0158 : FFFF;
  0159 : 0011;
  015A : 000B;
  015B : FFEC;
  015C : 0024;
  015D : FFEE;
  015E : FFF3;
  015F : FFF2;
  0160 : 0019;
  0161 : FFFD;
  0162 : 001F;
  0163 : 0020;
  0164 : 0015;
  0165 : FFFA;
  0166 : FFE5;
  0167 : 0012;
  0168 : FFE4;
  0169 : FFF1;
  016A : 0001;
  016B : FFDD;
  016C : 0008;
  016D : FFF9;
  016E : FFF9;
  016F : 0005;
  0170 : FFEE;
  0171 : FFFF;
  0172 : FFEF;
  0173 : 000F;
  0174 : FFFD;
  0175 : FFE0;
  0176 : 0013;
  0177 : 0005;
  0178 : FFFE;
  0179 : 0028;
  017A : FFEE;
  017B : 0011;
  017C : FFE4;
  017D : FFEB;
  017E : FFF7;
  017F : 001A;
  0180 : FFE1;
  0181 : 0010;
  0182 : FFF4;
  0183 : FFDB;
  0184 : 000C;
  0185 : 0012;
  0186 : 0016;
  0187 : FFE6;
  0188 : 0015;
  0189 : FFFF;
  018A : 001C;
  018B : FFDA;
  018C : FFF7;
  018D : FFFB;
  018E : FFEF;
  018F : 000B;
  0190 : FFF5;
  0191 : FFEE;
  0192 : FFFE;
  0193 : 0003;
  0194 : 000B;
  0195 : FFF6;
  0196 : FFFC;
  0197 : FFE7;
  0198 : 0001;
  0199 : FFE3;
  019A : FFF9;
  019B : FFE3;
  019C : FFE0;
  019D : FFED;
  019E : FFFF;
  019F : FFF7;
  01A0 : 001D;
  01A1 : 000B;
  01A2 : FFEF;
  01A3 : FFF6;
  01A4 : 0006;
  01A5 : FFEC;
  01A6 : 0019;
  01A7 : FFF5;
  01A8 : FFFD;
  01A9 : 0011;
  01AA : FFE5;
  01AB : FFEE;
  01AC : FFF8;
  01AD : FFFE;
  01AE : FFE4;
  01AF : 000E;
  01B0 : FFF7;
  01B1 : 0012;
  01B2 : 0005;
  01B3 : FFE9;
  01B4 : FFF5;
  01B5 : FFF6;
  01B6 : FFF7;
  01B7 : FFFC;
  01B8 : FFDD;
  01B9 : FFFC;
  01BA : 0011;
  01BB : FFF6;
  01BC : 0011;
  01BD : FFD7;
  01BE : 0008;
  01BF : FFE9;
  01C0 : 0000;
  01C1 : FFE3;
  01C2 : FFEF;
  01C3 : 001A;
  01C4 : FFFE;
  01C5 : 0026;
  01C6 : 0014;
  01C7 : FFF0;
  01C8 : FFEC;
  01C9 : FFF5;
  01CA : FFF2;
  01CB : 0013;
  01CC : FFEC;
  01CD : FFF7;
  01CE : FFD4;
  01CF : FFCE;
  01D0 : 000E;
  01D1 : FFF5;
  01D2 : FFF0;
  01D3 : 0006;
  01D4 : FFF2;
  01D5 : 0012;
  01D6 : 001A;
  01D7 : FFE7;
  01D8 : FFE1;
  01D9 : FFFF;
  01DA : FFFF;
  01DB : 0004;
  01DC : 0017;
  01DD : FFEE;
  01DE : FFF7;
  01DF : 0001;
  01E0 : 0010;
  01E1 : FFED;
  01E2 : FFCE;
  01E3 : 0010;
  01E4 : FFF5;
  01E5 : 0013;
  01E6 : FFFC;
  01E7 : FFF2;
  01E8 : FFFB;
  01E9 : FFF9;
  01EA : 0004;
  01EB : FFED;
  01EC : 001F;
  01ED : FFED;
  01EE : FFF8;
  01EF : FFF8;
  01F0 : 0012;
  01F1 : FFF3;
  01F2 : FFE0;
  01F3 : 0023;
  01F4 : 0006;
  01F5 : FFD9;
  01F6 : 0023;
  01F7 : 000A;
  01F8 : 0008;
  01F9 : FFFE;
  01FA : 0022;
  01FB : FFED;
  01FC : 001A;
  01FD : FFE2;
  01FE : 0014;
  01FF : FFFA;
  0200 : FFE4;
  0201 : 0002;
  0202 : FFF3;
  0203 : 0020;
  0204 : 000E;
  0205 : 0019;
  0206 : FFE5;
  0207 : 0004;
  0208 : FFEE;
  0209 : 0013;
  020A : 0002;
  020B : 0016;
  020C : 0010;
  020D : FFF3;
  020E : FFE3;
  020F : FFF3;
  0210 : FFFD;
  0211 : FFD7;
  0212 : 0010;
  0213 : FFFD;
  0214 : FFE7;
  0215 : 0012;
  0216 : 0008;
  0217 : FFD6;
  0218 : 000A;
  0219 : FFF8;
  021A : 0009;
  021B : FFE0;
  021C : FFD8;
  021D : FFDC;
  021E : 0007;
  021F : FFEB;
  0220 : 000B;
  0221 : FFF3;
  0222 : FFEC;
  0223 : 0004;
  0224 : 000F;
  0225 : FFF2;
  0226 : FFE0;
  0227 : FFF5;
  0228 : FFF6;
  0229 : FFE4;
  022A : FFEB;
  022B : 0011;
  022C : 0007;
  022D : 000B;
  022E : FFDC;
  022F : 0016;
  0230 : FFE7;
  0231 : FFF1;
  0232 : 000E;
  0233 : FFE7;
  0234 : 0024;
  0235 : FFE0;
  0236 : 0000;
  0237 : FFE6;
  0238 : FFDD;
  0239 : 0006;
  023A : 0008;
  023B : 000E;
  023C : 0003;
  023D : FFE5;
  023E : 0013;
  023F : 0013;
  0240 : FFFB;
  0241 : FFFC;
  0242 : FFDD;
  0243 : FFF5;
  0244 : 0005;
  0245 : 0014;
  0246 : FFED;
  0247 : 000F;
  0248 : FFE8;
  0249 : FFF4;
  024A : 000F;
  024B : FFEC;
  024C : FFE8;
  024D : FFE9;
  024E : 0010;
  024F : 001F;
  0250 : FFED;
  0251 : FFFA;
  0252 : FFEE;
  0253 : 0015;
  0254 : 0001;
  0255 : FFE1;
  0256 : FFEF;
  0257 : FFE7;
  0258 : 0007;
  0259 : 000B;
  025A : FFDE;
  025B : FFEB;
  025C : FFEC;
  025D : FFF1;
  025E : 0020;
  025F : FFF3;
  0260 : 0023;
  0261 : 000A;
  0262 : FFEF;
  0263 : 0000;
  0264 : 0024;
  0265 : 0010;
  0266 : FFFF;
  0267 : 000A;
  0268 : FFF3;
  0269 : 000D;
  026A : 0014;
  026B : 0019;
  026C : FFFF;
  026D : FFE2;
  026E : 000A;
  026F : 000F;
  0270 : FFFA;
  0271 : FFF5;
  0272 : FFF0;
  0273 : 0007;
  0274 : FFFB;
  0275 : FFE5;
  0276 : FFD3;
  0277 : FFEB;
  0278 : 0008;
  0279 : FFE9;
  027A : 001E;
  027B : 0025;
  027C : FFED;
  027D : 0005;
  027E : FFF6;
  027F : FFEB;
  0280 : 001E;
  0281 : FFFD;
  0282 : FFEF;
  0283 : 0006;
  0284 : FFE4;
  0285 : 0011;
  0286 : 0015;
  0287 : FFEA;
  0288 : 000A;
  0289 : FFFB;
  028A : 0012;
  028B : 0012;
  028C : 0002;
  028D : FFE6;
  028E : 000C;
  028F : 0018;
  0290 : FFE2;
  0291 : FFF7;
  0292 : FFF9;
  0293 : FFF6;
  0294 : 0003;
  0295 : 0009;
  0296 : FFDC;
  0297 : 0012;
  0298 : FFEF;
  0299 : FFFD;
  029A : FFF3;
  029B : FFDF;
  029C : FFF2;
  029D : FFE5;
  029E : 001B;
  029F : FFEE;
  02A0 : 001D;
  02A1 : FFF6;
  02A2 : 0020;
  02A3 : FFF3;
  02A4 : FFFB;
  02A5 : FFEA;
  02A6 : 0016;
  02A7 : FFF4;
  02A8 : FFCF;
  02A9 : 0013;
  02AA : FFF6;
  02AB : FFF3;
  02AC : FFF8;
  02AD : 001B;
  02AE : FFE5;
  02AF : FFF1;
  02B0 : FFD4;
  02B1 : FFF4;
  02B2 : FFFF;
  02B3 : 0015;
  02B4 : 0011;
  02B5 : 0013;
  02B6 : FFEE;
  02B7 : 0016;
  02B8 : 0008;
  02B9 : FFE9;
  02BA : FFFD;
  02BB : 0009;
  02BC : FFE5;
  02BD : FFEC;
  02BE : FFF4;
  02BF : FFED;
  02C0 : 0016;
  02C1 : 0000;
  02C2 : 000C;
  02C3 : 0018;
  02C4 : 0004;
  02C5 : FFFF;
  02C6 : FFF1;
  02C7 : FFEA;
  02C8 : 0007;
  02C9 : 0023;
  02CA : 0017;
  02CB : 000B;
  02CC : 0005;
  02CD : 0018;
  02CE : FFD8;
  02CF : FFE2;
  02D0 : 0000;
  02D1 : FFE4;
  02D2 : FFFD;
  02D3 : 000D;
  02D4 : 000C;
  02D5 : 0017;
  02D6 : 0013;
  02D7 : 000E;
  02D8 : FFDA;
  02D9 : 000F;
  02DA : 001B;
  02DB : FFE9;
  02DC : 0023;
  02DD : FFF8;
  02DE : FFEA;
  02DF : FFFC;
  02E0 : FFFC;
  02E1 : FFD6;
  02E2 : FFEE;
  02E3 : FFED;
  02E4 : 0015;
  02E5 : 000A;
  02E6 : 0003;
  02E7 : FFFF;
  02E8 : 0003;
  02E9 : FFDD;
  02EA : 0014;
  02EB : FFEE;
  02EC : 0009;
  02ED : FFDD;
  02EE : FFED;
  02EF : FFEF;
  02F0 : 000E;
  02F1 : FFF9;
  02F2 : FFE0;
  02F3 : FFF0;
  02F4 : 0003;
  02F5 : FFDA;
  02F6 : FFF1;
  02F7 : 001B;
  02F8 : 000E;
  02F9 : 000A;
  02FA : 0001;
  02FB : 0000;
  02FC : FFEF;
  02FD : 0007;
  02FE : 0004;
  02FF : FFE8;
  0300 : FFEF;
  0301 : 000B;
  0302 : 0025;
  0303 : 0014;
  0304 : 0010;
  0305 : FFE5;
  0306 : FFFB;
  0307 : FFE8;
  0308 : FFF4;
  0309 : 0003;
  030A : 0010;
  030B : FFF3;
  030C : 0015;
  030D : FFEC;
  030E : FFE3;
  030F : FFFC;
  0310 : 0019;
  0311 : 0015;
  0312 : FFF1;
  0313 : FFFD;
  0314 : 000E;
  0315 : 0002;
  0316 : 0017;
  0317 : FFF1;
  0318 : FFDC;
  0319 : 001B;
  031A : 001B;
  031B : FFEF;
  031C : 0015;
  031D : FFF0;
  031E : FFFA;
  031F : FFFB;
  0320 : FFF9;
  0321 : FFF5;
  0322 : 0001;
  0323 : 0009;
  0324 : 001D;
  0325 : FFF1;
  0326 : FFFA;
  0327 : 001C;
  0328 : 0004;
  0329 : FFE1;
  032A : FFFD;
  032B : FFF1;
  032C : FFF9;
  032D : FFEA;
  032E : 0008;
  032F : FFF7;
  0330 : FFFD;
  0331 : 000F;
  0332 : FFE7;
  0333 : 0010;
  0334 : 0005;
  0335 : 000F;
  0336 : FFF3;
  0337 : FFE1;
  0338 : 0007;
  0339 : FFFB;
  033A : 000D;
  033B : 0016;
  033C : FFFE;
  033D : 0014;
  033E : FFD1;
  033F : FFE7;
  0340 : FFFB;
  0341 : 0020;
  0342 : FFEC;
  0343 : FFED;
  0344 : FFFD;
  0345 : 001C;
  0346 : 0004;
  0347 : FFFC;
  0348 : 000B;
  0349 : FFCD;
  034A : 001C;
  034B : 0000;
  034C : 0009;
  034D : 0026;
  034E : FFF4;
  034F : 001B;
  0350 : FFE3;
  0351 : FFDB;
  0352 : FFEC;
  0353 : 000D;
  0354 : FFE9;
  0355 : FFF4;
  0356 : 0011;
  0357 : FFE3;
  0358 : 000A;
  0359 : 000F;
  035A : FFD9;
  035B : 0000;
  035C : FFE9;
  035D : FFE2;
  035E : 000E;
  035F : FFEB;
  0360 : FFFC;
  0361 : 0016;
  0362 : FFF0;
  0363 : 001E;
  0364 : 0024;
  0365 : 0000;
  0366 : 0010;
  0367 : 0005;
  0368 : FFEE;
  0369 : 0022;
  036A : FFEE;
  036B : FFFD;
  036C : FFF4;
  036D : 0000;
  036E : FFEE;
  036F : FFE5;
  0370 : 001A;
  0371 : 0010;
  0372 : FFF1;
  0373 : 000E;
  0374 : FFEB;
  0375 : FFE0;
  0376 : FFDF;
  0377 : FFF1;
  0378 : FFFA;
  0379 : 0011;
  037A : FFF1;
  037B : FFEA;
  037C : 0014;
  037D : FFD5;
  037E : FFDD;
  037F : FFF8;
  0380 : FFFE;
  0381 : 0015;
  0382 : FFED;
  0383 : 0002;
  0384 : 0000;
  0385 : 0002;
  0386 : 0013;
  0387 : 0005;
  0388 : 0012;
  0389 : FFE4;
  038A : 000D;
  038B : 0001;
  038C : FFF3;
  038D : 0002;
  038E : 0017;
  038F : 0001;
  0390 : FFEF;
  0391 : 0003;
  0392 : 0002;
  0393 : FFF4;
  0394 : 0008;
  0395 : FFEE;
  0396 : FFFE;
  0397 : FFF3;
  0398 : FFEC;
  0399 : FFFC;
  039A : FFEE;
  039B : FFD0;
  039C : FFE3;
  039D : FFE4;
  039E : 0006;
  039F : FFF1;
  03A0 : FFFB;
  03A1 : FFED;
  03A2 : FFF3;
  03A3 : FFE3;
  03A4 : 001C;
  03A5 : FFEB;
  03A6 : FFEB;
  03A7 : FFFF;
  03A8 : 0024;
  03A9 : FFF7;
  03AA : FFFC;
  03AB : FFE9;
  03AC : FFFF;
  03AD : 000D;
  03AE : 0003;
  03AF : 000F;
  03B0 : FFE9;
  03B1 : 0009;
  03B2 : FFFF;
  03B3 : 000D;
  03B4 : 0009;
  03B5 : 001E;
  03B6 : FFD7;
  03B7 : 0004;
  03B8 : FFE6;
  03B9 : FFEC;
  03BA : 0011;
  03BB : FFE9;
  03BC : 0009;
  03BD : FFF3;
  03BE : FFF2;
  03BF : FFDB;
  03C0 : 0014;
  03C1 : 0015;
  03C2 : 000E;
  03C3 : 0010;
  03C4 : 0016;
  03C5 : FFEA;
  03C6 : 0018;
  03C7 : FFD4;
  03C8 : 0004;
  03C9 : 0016;
  03CA : 0004;
  03CB : 0007;
  03CC : 0017;
  03CD : 000D;
  03CE : 000C;
  03CF : FFF1;
  03D0 : FFE5;
  03D1 : 000A;
  03D2 : FFFD;
  03D3 : FFE3;
  03D4 : FFEC;
  03D5 : FFFE;
  03D6 : 000D;
  03D7 : 0004;
  03D8 : 0008;
  03D9 : 0011;
  03DA : 0017;
  03DB : 0010;
  03DC : FFFC;
  03DD : 0000;
  03DE : FFDF;
  03DF : 0012;
  03E0 : FFFB;
  03E1 : 0004;
  03E2 : 0016;
  03E3 : FFF4;
  03E4 : 0001;
  03E5 : FFFB;
  03E6 : 000F;
  03E7 : FFF4;
  03E8 : 0024;
  03E9 : 000F;
  03EA : 001A;
  03EB : FFDE;
  03EC : FFF4;
  03ED : FFEA;
  03EE : 0004;
  03EF : 001F;
  03F0 : FFE5;
  03F1 : FFEB;
  03F2 : FFEB;
  03F3 : 001F;
  03F4 : 000C;
  03F5 : 0001;
  03F6 : 001B;
  03F7 : FFDB;
  03F8 : 000F;
  03F9 : FFDF;
  03FA : FFE6;
  03FB : 000A;
  03FC : 0004;
  03FD : 000E;
  03FE : 001E;
  03FF : FFE8;
END;
