-- conv0_weight
-- Original shape: (8, 1, 3)
DEPTH = 24;
WIDTH = 16;
ADDRESS_RADIX = HEX;
DATA_RADIX = HEX;
CONTENT BEGIN
  0000 : 0024;
  0001 : FFA1;
  0002 : FFB9;
  0003 : 007F;
  0004 : FFCA;
  0005 : FFB0;
  0006 : 0001;
  0007 : 0039;
  0008 : 001B;
  0009 : 0082;
  000A : FFDF;
  000B : FFB2;
  000C : 003A;
  000D : 0062;
  000E : 003F;
  000F : 001D;
  0010 : 001B;
  0011 : FF8A;
  0012 : 0016;
  0013 : FF66;
  0014 : 0011;
  0015 : FFC9;
  0016 : FFE2;
  0017 : FF89;
END;
