-- conv1_weight
-- Original shape: (16, 8, 3)
DEPTH = 384;
WIDTH = 16;
ADDRESS_RADIX = HEX;
DATA_RADIX = HEX;
CONTENT BEGIN
  0000 : 002D;
  0001 : 0034;
  0002 : 000E;
  0003 : 000F;
  0004 : FFEF;
  0005 : FFE5;
  0006 : FFF1;
  0007 : FFDC;
  0008 : 001B;
  0009 : FFEA;
  000A : 000B;
  000B : 001D;
  000C : FFCE;
  000D : FFC8;
  000E : 0027;
  000F : FFF8;
  0010 : 0026;
  0011 : FFCC;
  0012 : FFD6;
  0013 : FFDA;
  0014 : FFE0;
  0015 : 0032;
  0016 : FFF5;
  0017 : FFDE;
  0018 : FFDE;
  0019 : 0039;
  001A : 0010;
  001B : 0005;
  001C : FFFC;
  001D : FFE8;
  001E : 0008;
  001F : 001E;
  0020 : FFEE;
  0021 : 001C;
  0022 : FFF5;
  0023 : 001E;
  0024 : 0022;
  0025 : 001B;
  0026 : 001D;
  0027 : FFE7;
  0028 : 0019;
  0029 : 0017;
  002A : 001B;
  002B : 002E;
  002C : 002E;
  002D : 0023;
  002E : 0004;
  002F : 0036;
  0030 : FFE6;
  0031 : 000E;
  0032 : FFFF;
  0033 : FFD5;
  0034 : 0006;
  0035 : 002F;
  0036 : 0039;
  0037 : 0024;
  0038 : FFFE;
  0039 : FFF8;
  003A : 0003;
  003B : 002B;
  003C : 0011;
  003D : FFE9;
  003E : 0006;
  003F : FFE0;
  0040 : FFE4;
  0041 : FFE2;
  0042 : FFFC;
  0043 : FFD5;
  0044 : FFE4;
  0045 : 0018;
  0046 : FFD7;
  0047 : 001C;
  0048 : 0026;
  0049 : FFD7;
  004A : 0004;
  004B : FFFF;
  004C : FFED;
  004D : FFC9;
  004E : 0004;
  004F : 0026;
  0050 : FFDA;
  0051 : 000E;
  0052 : 0001;
  0053 : FFDE;
  0054 : 0002;
  0055 : 002C;
  0056 : 001C;
  0057 : FFE5;
  0058 : 0013;
  0059 : FFDF;
  005A : FFDF;
  005B : FFE4;
  005C : 002C;
  005D : FFE9;
  005E : FFE4;
  005F : FFF5;
  0060 : FFCD;
  0061 : 0033;
  0062 : FFDE;
  0063 : 0004;
  0064 : 0007;
  0065 : 0015;
  0066 : FFDD;
  0067 : 0010;
  0068 : FFE7;
  0069 : 002F;
  006A : FFF3;
  006B : 001C;
  006C : 0010;
  006D : 001D;
  006E : 0028;
  006F : 0015;
  0070 : 002F;
  0071 : 0006;
  0072 : FFDB;
  0073 : 000F;
  0074 : 0035;
  0075 : 001C;
  0076 : FFD3;
  0077 : FFD4;
  0078 : 0022;
  0079 : FFE1;
  007A : FFCE;
  007B : FFC6;
  007C : FFEA;
  007D : FFDD;
  007E : FFDE;
  007F : FFD6;
  0080 : FFF5;
  0081 : 000B;
  0082 : 0025;
  0083 : FFF1;
  0084 : 0030;
  0085 : FFDA;
  0086 : 000D;
  0087 : FFF6;
  0088 : FFF1;
  0089 : 002F;
  008A : FFFE;
  008B : FFEE;
  008C : FFF0;
  008D : 0031;
  008E : 0008;
  008F : 001D;
  0090 : 0024;
  0091 : 0005;
  0092 : 002A;
  0093 : FFF2;
  0094 : FFF0;
  0095 : 0032;
  0096 : FFEB;
  0097 : 0019;
  0098 : FFFA;
  0099 : FFF1;
  009A : FFDE;
  009B : 0018;
  009C : FFF8;
  009D : 001F;
  009E : 0009;
  009F : FFE4;
  00A0 : FFD6;
  00A1 : 0026;
  00A2 : FFEB;
  00A3 : 0010;
  00A4 : FFEB;
  00A5 : FFEA;
  00A6 : 001E;
  00A7 : 0011;
  00A8 : 0023;
  00A9 : FFD4;
  00AA : FFDC;
  00AB : FFFA;
  00AC : FFD0;
  00AD : 0026;
  00AE : 000A;
  00AF : 0017;
  00B0 : 0018;
  00B1 : FFDB;
  00B2 : 0011;
  00B3 : 0030;
  00B4 : FFDF;
  00B5 : 0011;
  00B6 : 0030;
  00B7 : FFE4;
  00B8 : 0024;
  00B9 : FFD3;
  00BA : 000E;
  00BB : 000A;
  00BC : FFEF;
  00BD : FFE8;
  00BE : FFF4;
  00BF : FFF5;
  00C0 : 0021;
  00C1 : FFE5;
  00C2 : FFF5;
  00C3 : FFE9;
  00C4 : FFFF;
  00C5 : 0025;
  00C6 : 0005;
  00C7 : FFDB;
  00C8 : FFD9;
  00C9 : 002A;
  00CA : 001B;
  00CB : FFF5;
  00CC : 000A;
  00CD : FFDD;
  00CE : FFCB;
  00CF : FFEA;
  00D0 : FFC9;
  00D1 : FFF3;
  00D2 : FFE9;
  00D3 : 0025;
  00D4 : 0014;
  00D5 : FFC0;
  00D6 : FFEF;
  00D7 : FFD5;
  00D8 : 0011;
  00D9 : 002B;
  00DA : 0024;
  00DB : FFE3;
  00DC : FFF6;
  00DD : 001E;
  00DE : FFFA;
  00DF : 0029;
  00E0 : 0003;
  00E1 : 000D;
  00E2 : 000F;
  00E3 : FFFE;
  00E4 : FFD6;
  00E5 : FFF4;
  00E6 : 000E;
  00E7 : 0022;
  00E8 : 0015;
  00E9 : 001E;
  00EA : 0018;
  00EB : 0017;
  00EC : 0006;
  00ED : FFDE;
  00EE : FFFE;
  00EF : FFF7;
  00F0 : 0014;
  00F1 : FFD9;
  00F2 : FFDD;
  00F3 : FFCF;
  00F4 : 0000;
  00F5 : 0002;
  00F6 : 0005;
  00F7 : FFBC;
  00F8 : FFCA;
  00F9 : FFCB;
  00FA : 0027;
  00FB : 0005;
  00FC : 0017;
  00FD : FFDD;
  00FE : FFEC;
  00FF : FFD7;
  0100 : 0024;
  0101 : 0035;
  0102 : FFEB;
  0103 : FFE2;
  0104 : FFD0;
  0105 : FFEF;
  0106 : 0015;
  0107 : 0008;
  0108 : 0017;
  0109 : 0009;
  010A : FFFF;
  010B : FFD4;
  010C : FFEC;
  010D : 0015;
  010E : FFFF;
  010F : 0026;
  0110 : FFEA;
  0111 : 0002;
  0112 : FFD5;
  0113 : 0032;
  0114 : FFE0;
  0115 : FFFD;
  0116 : FFE3;
  0117 : FFEF;
  0118 : FFD4;
  0119 : 0006;
  011A : FFDC;
  011B : 001E;
  011C : 002A;
  011D : FFDF;
  011E : FFEB;
  011F : FFD9;
  0120 : FFE0;
  0121 : 001C;
  0122 : 0010;
  0123 : FFDC;
  0124 : FFDF;
  0125 : FFF7;
  0126 : FFE8;
  0127 : 000D;
  0128 : FFF6;
  0129 : FFED;
  012A : 0028;
  012B : 003D;
  012C : 000A;
  012D : 0029;
  012E : 002C;
  012F : FFEE;
  0130 : FFDE;
  0131 : FFDC;
  0132 : FFD4;
  0133 : 0024;
  0134 : 0036;
  0135 : 001F;
  0136 : 0010;
  0137 : 0038;
  0138 : FFF1;
  0139 : 0021;
  013A : 0001;
  013B : FFF5;
  013C : FFDF;
  013D : FFCF;
  013E : 0011;
  013F : FFFC;
  0140 : 002A;
  0141 : FFE1;
  0142 : FFFD;
  0143 : 000F;
  0144 : 002B;
  0145 : FFDB;
  0146 : FFF2;
  0147 : FFD6;
  0148 : FFD0;
  0149 : FFE7;
  014A : FFF1;
  014B : FFF6;
  014C : 0038;
  014D : 0000;
  014E : 001B;
  014F : FFEF;
  0150 : 003A;
  0151 : 0024;
  0152 : 0020;
  0153 : FFE2;
  0154 : 0015;
  0155 : 0008;
  0156 : FFDC;
  0157 : FFFC;
  0158 : 0024;
  0159 : 0025;
  015A : 0008;
  015B : 0000;
  015C : FFD8;
  015D : FFCC;
  015E : 002A;
  015F : FFF7;
  0160 : FFD5;
  0161 : FFEF;
  0162 : FFDC;
  0163 : 0035;
  0164 : 0013;
  0165 : 0008;
  0166 : 0009;
  0167 : FFDF;
  0168 : FFF0;
  0169 : FFE5;
  016A : FFF6;
  016B : FFF1;
  016C : FFE1;
  016D : 001E;
  016E : FFDB;
  016F : FFD0;
  0170 : 0010;
  0171 : 0009;
  0172 : FFE0;
  0173 : FFC7;
  0174 : 0024;
  0175 : 0009;
  0176 : FFCB;
  0177 : 0032;
  0178 : FFC7;
  0179 : FFDB;
  017A : 001A;
  017B : 001F;
  017C : FFF2;
  017D : 0000;
  017E : FFFF;
  017F : FFF8;
END;
