-- conv4_weight
-- Original shape: (1, 32, 3)
DEPTH = 96;
WIDTH = 16;
ADDRESS_RADIX = HEX;
DATA_RADIX = HEX;
CONTENT BEGIN
  0000 : FFED;
  0001 : FFE3;
  0002 : 0029;
  0003 : 0045;
  0004 : 0028;
  0005 : FFFF;
  0006 : 002C;
  0007 : 003D;
  0008 : 000E;
  0009 : 0030;
  000A : 000A;
  000B : FFD1;
  000C : 0023;
  000D : 0003;
  000E : 001B;
  000F : 0033;
  0010 : FFE9;
  0011 : 000D;
  0012 : 000F;
  0013 : FFE6;
  0014 : 0005;
  0015 : 0023;
  0016 : 0024;
  0017 : 0029;
  0018 : 000F;
  0019 : 0023;
  001A : 002A;
  001B : 0003;
  001C : 0035;
  001D : FFF6;
  001E : 0009;
  001F : FFED;
  0020 : 001A;
  0021 : FFC8;
  0022 : FFE7;
  0023 : FFFF;
  0024 : 000B;
  0025 : FFE9;
  0026 : 0009;
  0027 : FFD8;
  0028 : FFE6;
  0029 : FFE5;
  002A : FFE6;
  002B : 0015;
  002C : 0017;
  002D : FFD3;
  002E : FFD6;
  002F : 001D;
  0030 : 0034;
  0031 : 0020;
  0032 : FFD6;
  0033 : FFDF;
  0034 : 0017;
  0035 : 000E;
  0036 : 002B;
  0037 : 0029;
  0038 : 0010;
  0039 : FFD4;
  003A : 0005;
  003B : 0017;
  003C : 0039;
  003D : FFF7;
  003E : 0020;
  003F : 0032;
  0040 : FFEC;
  0041 : 0023;
  0042 : FFFC;
  0043 : 0021;
  0044 : 0001;
  0045 : 001A;
  0046 : FFD4;
  0047 : 0021;
  0048 : 0031;
  0049 : 0021;
  004A : 0025;
  004B : FFEF;
  004C : 000E;
  004D : 002B;
  004E : FFCA;
  004F : FFE4;
  0050 : FFE7;
  0051 : 0040;
  0052 : 0023;
  0053 : FFFB;
  0054 : FFDD;
  0055 : 0022;
  0056 : 002F;
  0057 : FFC4;
  0058 : FFF6;
  0059 : 001B;
  005A : 003B;
  005B : FFEA;
  005C : FFDF;
  005D : 002A;
  005E : 000E;
  005F : 0029;
END;
