-- conv2_weight
-- Original shape: (32, 16, 3)
DEPTH = 1536;
WIDTH = 16;
ADDRESS_RADIX = HEX;
DATA_RADIX = HEX;
CONTENT BEGIN
  0000 : 0021;
  0001 : 0003;
  0002 : FFD8;
  0003 : FFD7;
  0004 : 001E;
  0005 : 002D;
  0006 : FFFF;
  0007 : 001C;
  0008 : FFEC;
  0009 : FFF0;
  000A : FFDA;
  000B : 001A;
  000C : FFE6;
  000D : FFEC;
  000E : 001B;
  000F : 001E;
  0010 : FFEC;
  0011 : FFE4;
  0012 : FFDD;
  0013 : 0019;
  0014 : FFDF;
  0015 : FFEC;
  0016 : 0002;
  0017 : FFFB;
  0018 : FFF7;
  0019 : 0012;
  001A : 0010;
  001B : FFDE;
  001C : 0006;
  001D : FFF2;
  001E : FFFC;
  001F : FFF8;
  0020 : 0017;
  0021 : 0018;
  0022 : 000D;
  0023 : 0000;
  0024 : 001D;
  0025 : 0006;
  0026 : 000C;
  0027 : FFFB;
  0028 : FFF3;
  0029 : 0018;
  002A : 0000;
  002B : FFFF;
  002C : FFEF;
  002D : FFF6;
  002E : 000C;
  002F : FFD1;
  0030 : 0004;
  0031 : 0036;
  0032 : 0009;
  0033 : 0015;
  0034 : FFE8;
  0035 : 0000;
  0036 : FFFA;
  0037 : 000D;
  0038 : FFDF;
  0039 : FFFC;
  003A : 0003;
  003B : 0026;
  003C : FFED;
  003D : 000F;
  003E : FFD9;
  003F : 0003;
  0040 : 001B;
  0041 : 001C;
  0042 : 0018;
  0043 : 0000;
  0044 : FFE8;
  0045 : FFEC;
  0046 : 0003;
  0047 : FFE5;
  0048 : FFD8;
  0049 : FFE2;
  004A : FFDC;
  004B : 0009;
  004C : 0014;
  004D : FFD3;
  004E : FFF1;
  004F : 002C;
  0050 : 0009;
  0051 : 0006;
  0052 : 0010;
  0053 : 000A;
  0054 : 0011;
  0055 : FFFB;
  0056 : 0005;
  0057 : 000A;
  0058 : 001F;
  0059 : FFED;
  005A : 0003;
  005B : 000C;
  005C : FFE6;
  005D : FFE4;
  005E : FFFC;
  005F : 0024;
  0060 : FFF7;
  0061 : 0005;
  0062 : 0024;
  0063 : 0000;
  0064 : 0006;
  0065 : FFE7;
  0066 : 000B;
  0067 : 0006;
  0068 : 0007;
  0069 : 0023;
  006A : FFEF;
  006B : 0020;
  006C : FFF7;
  006D : 0000;
  006E : 0000;
  006F : 000C;
  0070 : FFE2;
  0071 : 002E;
  0072 : FFF9;
  0073 : FFEE;
  0074 : 0011;
  0075 : FFE4;
  0076 : FFFB;
  0077 : FFE4;
  0078 : FFDA;
  0079 : FFF6;
  007A : FFD1;
  007B : FFF0;
  007C : FFCD;
  007D : FFD8;
  007E : FFF6;
  007F : FFD9;
  0080 : FFE3;
  0081 : FFCC;
  0082 : FFF5;
  0083 : 0021;
  0084 : 0005;
  0085 : FFFA;
  0086 : 0019;
  0087 : 0014;
  0088 : 0027;
  0089 : FFFA;
  008A : 0015;
  008B : 0003;
  008C : 000C;
  008D : FFEC;
  008E : 001A;
  008F : 002F;
  0090 : 0015;
  0091 : FFFD;
  0092 : FFEC;
  0093 : 0021;
  0094 : FFFF;
  0095 : FFF5;
  0096 : FFE5;
  0097 : 0015;
  0098 : FFF0;
  0099 : FFF6;
  009A : 0001;
  009B : 0018;
  009C : 0004;
  009D : 0005;
  009E : 0015;
  009F : FFE2;
  00A0 : 0012;
  00A1 : FFDD;
  00A2 : FFE1;
  00A3 : FFE8;
  00A4 : FFFD;
  00A5 : FFE3;
  00A6 : 0025;
  00A7 : FFEB;
  00A8 : FFFC;
  00A9 : 0001;
  00AA : 0023;
  00AB : 000C;
  00AC : FFF0;
  00AD : FFE8;
  00AE : 0001;
  00AF : 0012;
  00B0 : 001A;
  00B1 : 000E;
  00B2 : FFF0;
  00B3 : 000D;
  00B4 : FFE2;
  00B5 : 0022;
  00B6 : FFF7;
  00B7 : 0003;
  00B8 : FFF4;
  00B9 : FFFB;
  00BA : 0025;
  00BB : 0026;
  00BC : FFED;
  00BD : FFE1;
  00BE : FFFD;
  00BF : 0000;
  00C0 : FFFF;
  00C1 : FFF4;
  00C2 : 0026;
  00C3 : 0009;
  00C4 : 0026;
  00C5 : FFFC;
  00C6 : 001A;
  00C7 : 0021;
  00C8 : FFFB;
  00C9 : 0003;
  00CA : FFF1;
  00CB : FFDC;
  00CC : 0001;
  00CD : FFFA;
  00CE : FFE5;
  00CF : 001A;
  00D0 : FFE7;
  00D1 : FFC4;
  00D2 : 0000;
  00D3 : 001D;
  00D4 : 0005;
  00D5 : FFF0;
  00D6 : FFF8;
  00D7 : 0003;
  00D8 : 0012;
  00D9 : FFF1;
  00DA : 001E;
  00DB : FFEE;
  00DC : FFF7;
  00DD : FFE8;
  00DE : FFEE;
  00DF : 000E;
  00E0 : 0005;
  00E1 : FFF0;
  00E2 : FFD8;
  00E3 : FFEC;
  00E4 : 0016;
  00E5 : 0006;
  00E6 : FFE0;
  00E7 : FFE6;
  00E8 : FFE3;
  00E9 : FFD3;
  00EA : FFFF;
  00EB : FFDC;
  00EC : 0019;
  00ED : FFFC;
  00EE : 000C;
  00EF : FFF6;
  00F0 : 0002;
  00F1 : FFFA;
  00F2 : 002F;
  00F3 : 000B;
  00F4 : FFFC;
  00F5 : 0001;
  00F6 : FFE6;
  00F7 : 0016;
  00F8 : FFD1;
  00F9 : 000D;
  00FA : 0011;
  00FB : FFE1;
  00FC : 0003;
  00FD : 0002;
  00FE : 0019;
  00FF : 0004;
  0100 : FFF0;
  0101 : 0021;
  0102 : 0022;
  0103 : 0028;
  0104 : FFE7;
  0105 : 0025;
  0106 : 0013;
  0107 : 000D;
  0108 : 0003;
  0109 : 0023;
  010A : FFFA;
  010B : 0020;
  010C : 000D;
  010D : FFF5;
  010E : FFEB;
  010F : 0005;
  0110 : FFDD;
  0111 : FFEA;
  0112 : 0005;
  0113 : FFFC;
  0114 : 0000;
  0115 : 000D;
  0116 : FFFF;
  0117 : FFFC;
  0118 : 000F;
  0119 : FFF8;
  011A : FFE3;
  011B : 0021;
  011C : 0009;
  011D : 0015;
  011E : FFF5;
  011F : 0016;
  0120 : FFEC;
  0121 : FFD9;
  0122 : 0013;
  0123 : 0005;
  0124 : 0024;
  0125 : 0021;
  0126 : 0012;
  0127 : 001A;
  0128 : FFE7;
  0129 : FFF5;
  012A : 0031;
  012B : FFFF;
  012C : FFE1;
  012D : 000E;
  012E : FFEC;
  012F : 0016;
  0130 : 0018;
  0131 : FFE9;
  0132 : FFF5;
  0133 : FFE0;
  0134 : 0003;
  0135 : FFEC;
  0136 : FFF3;
  0137 : 0003;
  0138 : FFD7;
  0139 : 0015;
  013A : FFE7;
  013B : 0025;
  013C : 0002;
  013D : FFE4;
  013E : 0005;
  013F : FFE0;
  0140 : 000E;
  0141 : 0007;
  0142 : FFE8;
  0143 : FFC6;
  0144 : 000E;
  0145 : 0008;
  0146 : 001A;
  0147 : FFEA;
  0148 : FFF7;
  0149 : 0000;
  014A : 000F;
  014B : FFF3;
  014C : FFEC;
  014D : 0028;
  014E : FFE6;
  014F : FFCE;
  0150 : 0020;
  0151 : 0000;
  0152 : 000E;
  0153 : 0011;
  0154 : FFF8;
  0155 : FFD7;
  0156 : 0000;
  0157 : FFFE;
  0158 : 000C;
  0159 : FFE3;
  015A : FFFC;
  015B : 0010;
  015C : 0007;
  015D : 000D;
  015E : FFF0;
  015F : 0010;
  0160 : 000E;
  0161 : 001B;
  0162 : FFEE;
  0163 : 000B;
  0164 : FFEA;
  0165 : FFD5;
  0166 : 0028;
  0167 : FFF4;
  0168 : 001D;
  0169 : FFE7;
  016A : FFFB;
  016B : FFDA;
  016C : FFE6;
  016D : FFEF;
  016E : FFF6;
  016F : FFE4;
  0170 : FFE2;
  0171 : FFFF;
  0172 : FFF6;
  0173 : FFF1;
  0174 : FFD6;
  0175 : 0020;
  0176 : 0018;
  0177 : FFEF;
  0178 : FFFD;
  0179 : FFF6;
  017A : 001A;
  017B : 0014;
  017C : 0023;
  017D : FFF7;
  017E : FFFE;
  017F : FFF2;
  0180 : FFF0;
  0181 : 000C;
  0182 : 0008;
  0183 : FFEA;
  0184 : FFE9;
  0185 : FFE9;
  0186 : 0006;
  0187 : FFF3;
  0188 : 0005;
  0189 : FFDE;
  018A : FFFB;
  018B : FFEE;
  018C : 001C;
  018D : FFFB;
  018E : FFEB;
  018F : 0021;
  0190 : FFEE;
  0191 : 0004;
  0192 : FFEB;
  0193 : FFEC;
  0194 : FFF0;
  0195 : 0022;
  0196 : 0002;
  0197 : FFED;
  0198 : 000F;
  0199 : FFE1;
  019A : FFED;
  019B : 001D;
  019C : 001C;
  019D : 0008;
  019E : FFC3;
  019F : FFE7;
  01A0 : 0024;
  01A1 : FFC7;
  01A2 : FFFF;
  01A3 : FFED;
  01A4 : 0001;
  01A5 : FFF3;
  01A6 : 0011;
  01A7 : FFDB;
  01A8 : 0028;
  01A9 : FFFD;
  01AA : 0004;
  01AB : FFFE;
  01AC : FFF1;
  01AD : 0002;
  01AE : 0005;
  01AF : 0011;
  01B0 : FFC9;
  01B1 : FFE6;
  01B2 : 000F;
  01B3 : FFE9;
  01B4 : FFEA;
  01B5 : FFFA;
  01B6 : FFF0;
  01B7 : FFE7;
  01B8 : FFFD;
  01B9 : 0018;
  01BA : FFF1;
  01BB : FFEE;
  01BC : FFDF;
  01BD : FFF0;
  01BE : 000E;
  01BF : 0004;
  01C0 : 0023;
  01C1 : FFCD;
  01C2 : 0016;
  01C3 : 000A;
  01C4 : 0019;
  01C5 : FFE4;
  01C6 : 000A;
  01C7 : 0017;
  01C8 : FFF7;
  01C9 : FFF9;
  01CA : FFED;
  01CB : 0006;
  01CC : 001D;
  01CD : 001C;
  01CE : FFFF;
  01CF : 001A;
  01D0 : FFDB;
  01D1 : 0029;
  01D2 : FFFF;
  01D3 : 000F;
  01D4 : FFE3;
  01D5 : FFD6;
  01D6 : FFDA;
  01D7 : 0010;
  01D8 : 0004;
  01D9 : 000B;
  01DA : 0009;
  01DB : FFE7;
  01DC : 001F;
  01DD : 002A;
  01DE : 0025;
  01DF : 000A;
  01E0 : FFE1;
  01E1 : FFF8;
  01E2 : 0008;
  01E3 : 001E;
  01E4 : 0018;
  01E5 : 0017;
  01E6 : FFF7;
  01E7 : FFF0;
  01E8 : FFE2;
  01E9 : 000B;
  01EA : FFF5;
  01EB : 0003;
  01EC : FFDC;
  01ED : FFF9;
  01EE : FFF2;
  01EF : FFD4;
  01F0 : 0014;
  01F1 : 0005;
  01F2 : 000A;
  01F3 : 0008;
  01F4 : FFF5;
  01F5 : 0014;
  01F6 : FFD1;
  01F7 : FFD9;
  01F8 : 0013;
  01F9 : 000E;
  01FA : 0014;
  01FB : FFDF;
  01FC : 001B;
  01FD : FFD8;
  01FE : FFEC;
  01FF : 0016;
  0200 : FFF3;
  0201 : 0026;
  0202 : FFF0;
  0203 : 001C;
  0204 : FFE1;
  0205 : FFE9;
  0206 : FFEE;
  0207 : 001C;
  0208 : 0010;
  0209 : FFEE;
  020A : 0001;
  020B : FFF2;
  020C : 001D;
  020D : FFD4;
  020E : 0010;
  020F : FFE7;
  0210 : FFBC;
  0211 : 000D;
  0212 : 0017;
  0213 : FFEF;
  0214 : 000E;
  0215 : 0027;
  0216 : FFE7;
  0217 : 0005;
  0218 : FFF5;
  0219 : FFF4;
  021A : FFCF;
  021B : 000B;
  021C : FFFA;
  021D : 0002;
  021E : FFF1;
  021F : FFC4;
  0220 : FFD2;
  0221 : FFFF;
  0222 : 000E;
  0223 : FFFF;
  0224 : 0001;
  0225 : FFF8;
  0226 : 000F;
  0227 : FFE9;
  0228 : 001C;
  0229 : 0027;
  022A : 000D;
  022B : FFF3;
  022C : 000B;
  022D : FFEF;
  022E : FFDC;
  022F : FFE6;
  0230 : FFFC;
  0231 : FFE7;
  0232 : FFF0;
  0233 : 0000;
  0234 : FFE4;
  0235 : FFED;
  0236 : FFFB;
  0237 : FFD8;
  0238 : FFD6;
  0239 : FFFB;
  023A : FFFC;
  023B : 0000;
  023C : 000B;
  023D : FFD3;
  023E : FFED;
  023F : 002F;
  0240 : FFF5;
  0241 : FFE0;
  0242 : FFE5;
  0243 : FFE4;
  0244 : FFF4;
  0245 : FFEE;
  0246 : FFEE;
  0247 : FFEE;
  0248 : FFF5;
  0249 : FFFE;
  024A : FFD9;
  024B : 0009;
  024C : FFDF;
  024D : FFFE;
  024E : FFF6;
  024F : FFEF;
  0250 : 000A;
  0251 : FFE4;
  0252 : FFF9;
  0253 : 0005;
  0254 : FFE4;
  0255 : 0019;
  0256 : 001B;
  0257 : FFDD;
  0258 : 0012;
  0259 : FFE5;
  025A : 000C;
  025B : 0023;
  025C : FFF6;
  025D : FFE4;
  025E : 0000;
  025F : FFFE;
  0260 : FFED;
  0261 : 0017;
  0262 : FFD8;
  0263 : 0005;
  0264 : FFE3;
  0265 : 000F;
  0266 : 0025;
  0267 : 0000;
  0268 : FFD8;
  0269 : FFD4;
  026A : 000C;
  026B : FFF3;
  026C : FFD1;
  026D : FFEB;
  026E : 0005;
  026F : FFEF;
  0270 : 0003;
  0271 : FFFF;
  0272 : 0004;
  0273 : 0012;
  0274 : 0011;
  0275 : 0016;
  0276 : 0000;
  0277 : FFED;
  0278 : 0014;
  0279 : FFF8;
  027A : 0018;
  027B : 0009;
  027C : 0009;
  027D : FFF4;
  027E : FFD8;
  027F : 002A;
  0280 : 0007;
  0281 : 0010;
  0282 : FFE3;
  0283 : 0009;
  0284 : 0020;
  0285 : FFDE;
  0286 : FFF2;
  0287 : FFD5;
  0288 : 0023;
  0289 : 001B;
  028A : 0013;
  028B : FFED;
  028C : 0004;
  028D : FFDD;
  028E : 0024;
  028F : 0001;
  0290 : 0012;
  0291 : 0026;
  0292 : 0028;
  0293 : FFF5;
  0294 : 0017;
  0295 : FFF8;
  0296 : 000C;
  0297 : FFF0;
  0298 : 0023;
  0299 : 0007;
  029A : FFD9;
  029B : FFD5;
  029C : 0001;
  029D : 0010;
  029E : 002D;
  029F : 0020;
  02A0 : 0023;
  02A1 : FFF8;
  02A2 : FFFD;
  02A3 : 0020;
  02A4 : 000D;
  02A5 : 0028;
  02A6 : 0023;
  02A7 : 0003;
  02A8 : FFEE;
  02A9 : 0015;
  02AA : FFEC;
  02AB : FFED;
  02AC : FFD5;
  02AD : 000D;
  02AE : 001A;
  02AF : FFE3;
  02B0 : 0002;
  02B1 : FFD2;
  02B2 : FFF9;
  02B3 : FFDA;
  02B4 : 001D;
  02B5 : FFF4;
  02B6 : 0004;
  02B7 : 0002;
  02B8 : FFFD;
  02B9 : FFE9;
  02BA : FFF9;
  02BB : FFEF;
  02BC : 000B;
  02BD : 001E;
  02BE : FFD5;
  02BF : 0002;
  02C0 : FFF8;
  02C1 : 0012;
  02C2 : 001C;
  02C3 : FFFA;
  02C4 : 0017;
  02C5 : FFFE;
  02C6 : 0006;
  02C7 : 0014;
  02C8 : FFFA;
  02C9 : 0021;
  02CA : 000C;
  02CB : 0004;
  02CC : 0024;
  02CD : FFDA;
  02CE : FFF2;
  02CF : FFFE;
  02D0 : FFC3;
  02D1 : FFEA;
  02D2 : FFEA;
  02D3 : FFE7;
  02D4 : 0018;
  02D5 : 0011;
  02D6 : FFF5;
  02D7 : FFFC;
  02D8 : FFF2;
  02D9 : 0003;
  02DA : FFFC;
  02DB : FFE6;
  02DC : 001A;
  02DD : FFE1;
  02DE : FFDC;
  02DF : FFEC;
  02E0 : 0007;
  02E1 : 001C;
  02E2 : 0004;
  02E3 : FFE5;
  02E4 : 0005;
  02E5 : FFF2;
  02E6 : 0007;
  02E7 : FFD9;
  02E8 : 0015;
  02E9 : FFDF;
  02EA : 0020;
  02EB : FFEA;
  02EC : 0001;
  02ED : FFF4;
  02EE : FFD5;
  02EF : FFE9;
  02F0 : FFF2;
  02F1 : 0001;
  02F2 : 001A;
  02F3 : FFDD;
  02F4 : FFF0;
  02F5 : FFEA;
  02F6 : 0017;
  02F7 : FFF3;
  02F8 : FFF8;
  02F9 : 0003;
  02FA : 000B;
  02FB : FFEB;
  02FC : FFFC;
  02FD : FFF0;
  02FE : 0014;
  02FF : FFEC;
  0300 : FFE5;
  0301 : 0013;
  0302 : 0016;
  0303 : 0000;
  0304 : 0002;
  0305 : 000C;
  0306 : FFF6;
  0307 : FFD6;
  0308 : 001F;
  0309 : FFF3;
  030A : FFDA;
  030B : FFF6;
  030C : FFFF;
  030D : 000F;
  030E : 0012;
  030F : FFC4;
  0310 : FFFF;
  0311 : FFF5;
  0312 : FFF6;
  0313 : 0021;
  0314 : FFF3;
  0315 : 000F;
  0316 : FFF7;
  0317 : FFFF;
  0318 : 0013;
  0319 : 0013;
  031A : 0014;
  031B : 0005;
  031C : FFD8;
  031D : 0007;
  031E : 0024;
  031F : FFEE;
  0320 : FFD4;
  0321 : FFF9;
  0322 : FFD1;
  0323 : 000D;
  0324 : FFF3;
  0325 : FFE6;
  0326 : 001A;
  0327 : FFFA;
  0328 : 000C;
  0329 : FFEA;
  032A : FFE7;
  032B : 000F;
  032C : FFEA;
  032D : FFCB;
  032E : FFE9;
  032F : 0001;
  0330 : FFDD;
  0331 : 0011;
  0332 : 002F;
  0333 : 0014;
  0334 : FFF7;
  0335 : 0014;
  0336 : FFE0;
  0337 : 0004;
  0338 : 000C;
  0339 : FFEF;
  033A : FFF1;
  033B : FFF7;
  033C : FFE2;
  033D : FFEA;
  033E : 0012;
  033F : FFDD;
  0340 : FFE6;
  0341 : FFE8;
  0342 : 0002;
  0343 : 0002;
  0344 : FFF5;
  0345 : FFF3;
  0346 : FFF8;
  0347 : FFEE;
  0348 : FFFB;
  0349 : 0003;
  034A : FFE4;
  034B : FFF3;
  034C : 0016;
  034D : 001F;
  034E : 0016;
  034F : FFFE;
  0350 : FFDB;
  0351 : 0001;
  0352 : FFF8;
  0353 : FFED;
  0354 : FFFF;
  0355 : FFD7;
  0356 : FFE1;
  0357 : FFF5;
  0358 : 0016;
  0359 : 0014;
  035A : 0000;
  035B : FFD5;
  035C : FFEE;
  035D : FFE8;
  035E : FFEE;
  035F : 001B;
  0360 : FFE9;
  0361 : 001B;
  0362 : FFD7;
  0363 : FFEC;
  0364 : 0012;
  0365 : 0024;
  0366 : 000D;
  0367 : FFE9;
  0368 : 000C;
  0369 : FFFB;
  036A : FFDC;
  036B : FFFF;
  036C : 001D;
  036D : 0008;
  036E : FFF4;
  036F : 0001;
  0370 : 0000;
  0371 : FFE2;
  0372 : FFFF;
  0373 : 001F;
  0374 : FFE0;
  0375 : FFDC;
  0376 : 0017;
  0377 : FFDA;
  0378 : 0020;
  0379 : 000B;
  037A : 000D;
  037B : FFFF;
  037C : FFDD;
  037D : 0017;
  037E : 0004;
  037F : FFFA;
  0380 : 000E;
  0381 : FFE4;
  0382 : 0001;
  0383 : FFEC;
  0384 : FFD9;
  0385 : FFE1;
  0386 : FFFC;
  0387 : FFD4;
  0388 : FFED;
  0389 : 001E;
  038A : FFFC;
  038B : 0006;
  038C : FFDE;
  038D : FFEF;
  038E : 001C;
  038F : FFCC;
  0390 : 0020;
  0391 : FFFD;
  0392 : FFC6;
  0393 : FFEF;
  0394 : 0002;
  0395 : FFE3;
  0396 : FFF1;
  0397 : 0015;
  0398 : FFFF;
  0399 : 0019;
  039A : FFED;
  039B : 0016;
  039C : FFEA;
  039D : FFE5;
  039E : FFE9;
  039F : 0003;
  03A0 : FFFF;
  03A1 : FFE2;
  03A2 : 0003;
  03A3 : 000E;
  03A4 : FFEF;
  03A5 : 0017;
  03A6 : 0000;
  03A7 : FFF9;
  03A8 : 0026;
  03A9 : 0017;
  03AA : FFF2;
  03AB : FFFA;
  03AC : FFF4;
  03AD : 000A;
  03AE : 0014;
  03AF : 0004;
  03B0 : 0003;
  03B1 : 0010;
  03B2 : FFD4;
  03B3 : FFCC;
  03B4 : 0009;
  03B5 : FFEE;
  03B6 : 0024;
  03B7 : FFE6;
  03B8 : 001B;
  03B9 : FFFB;
  03BA : 000F;
  03BB : 0006;
  03BC : 000A;
  03BD : 000B;
  03BE : FFD6;
  03BF : FFC3;
  03C0 : 0024;
  03C1 : FFF1;
  03C2 : FFF6;
  03C3 : FFE6;
  03C4 : FFE3;
  03C5 : FFFC;
  03C6 : FFDD;
  03C7 : FFE5;
  03C8 : 0012;
  03C9 : FFE8;
  03CA : FFDB;
  03CB : FFE8;
  03CC : 0018;
  03CD : FFEF;
  03CE : FFFA;
  03CF : 0008;
  03D0 : FFF5;
  03D1 : FFFF;
  03D2 : FFEA;
  03D3 : 002F;
  03D4 : 0002;
  03D5 : FFFC;
  03D6 : 0033;
  03D7 : FFE9;
  03D8 : FFF0;
  03D9 : 0000;
  03DA : 002B;
  03DB : FFF3;
  03DC : 0001;
  03DD : FFDB;
  03DE : 000D;
  03DF : 0002;
  03E0 : 0007;
  03E1 : 0003;
  03E2 : 0003;
  03E3 : 0014;
  03E4 : 000A;
  03E5 : 0008;
  03E6 : 000B;
  03E7 : FFE2;
  03E8 : 0007;
  03E9 : 000F;
  03EA : 001E;
  03EB : FFFA;
  03EC : 000D;
  03ED : FFE3;
  03EE : 0003;
  03EF : 0014;
  03F0 : 0001;
  03F1 : FFDD;
  03F2 : FFF1;
  03F3 : 0025;
  03F4 : FFE6;
  03F5 : 000D;
  03F6 : 001D;
  03F7 : 0005;
  03F8 : FFEB;
  03F9 : 000C;
  03FA : FFFE;
  03FB : FFF8;
  03FC : 000A;
  03FD : 001C;
  03FE : 0010;
  03FF : FFFD;
  0400 : 000A;
  0401 : FFC9;
  0402 : FFFA;
  0403 : FFD7;
  0404 : 0025;
  0405 : FFF9;
  0406 : FFF8;
  0407 : FFD9;
  0408 : 0013;
  0409 : 001B;
  040A : 0018;
  040B : FFEB;
  040C : FFE3;
  040D : FFF7;
  040E : 0008;
  040F : FFE5;
  0410 : FFFC;
  0411 : 001D;
  0412 : 0013;
  0413 : FFD2;
  0414 : FFE3;
  0415 : FFF2;
  0416 : 0008;
  0417 : FFF6;
  0418 : FFD0;
  0419 : 0009;
  041A : FFE4;
  041B : 0009;
  041C : 0016;
  041D : 0009;
  041E : FFDA;
  041F : FFE2;
  0420 : 000C;
  0421 : FFDC;
  0422 : FFE2;
  0423 : 0015;
  0424 : 0009;
  0425 : FFED;
  0426 : 0023;
  0427 : FFD6;
  0428 : 0020;
  0429 : FFF7;
  042A : 001F;
  042B : FFFF;
  042C : FFE6;
  042D : FFEA;
  042E : FFE8;
  042F : 0026;
  0430 : FFF2;
  0431 : 0010;
  0432 : 000B;
  0433 : FFD4;
  0434 : 0003;
  0435 : 0003;
  0436 : 001B;
  0437 : FFFD;
  0438 : FFC5;
  0439 : FFF1;
  043A : 001A;
  043B : FFF9;
  043C : 0006;
  043D : 0008;
  043E : 0001;
  043F : FFFD;
  0440 : FFE2;
  0441 : 0012;
  0442 : FFE7;
  0443 : 002D;
  0444 : FFE9;
  0445 : 0016;
  0446 : FFED;
  0447 : 001B;
  0448 : FFFB;
  0449 : FFEB;
  044A : 0020;
  044B : FFEE;
  044C : FFE7;
  044D : 0018;
  044E : FFDB;
  044F : FFE4;
  0450 : 000B;
  0451 : 0002;
  0452 : 0009;
  0453 : FFE1;
  0454 : 0009;
  0455 : FFDA;
  0456 : 0016;
  0457 : 0016;
  0458 : FFD1;
  0459 : FFE4;
  045A : 0005;
  045B : FFF1;
  045C : FFF4;
  045D : 0017;
  045E : 000A;
  045F : 0002;
  0460 : 000E;
  0461 : 0013;
  0462 : FFFB;
  0463 : 000E;
  0464 : FFEE;
  0465 : 001A;
  0466 : 000E;
  0467 : FFFB;
  0468 : FFFD;
  0469 : 000C;
  046A : 0009;
  046B : FFF1;
  046C : 0016;
  046D : 0029;
  046E : 0002;
  046F : 0015;
  0470 : 000B;
  0471 : 0004;
  0472 : 0019;
  0473 : 0015;
  0474 : 0007;
  0475 : FFF2;
  0476 : FFD6;
  0477 : FFEE;
  0478 : FFC6;
  0479 : FFF9;
  047A : 001C;
  047B : FFDE;
  047C : 000F;
  047D : 001C;
  047E : 0004;
  047F : FFEF;
  0480 : FFF2;
  0481 : FFF9;
  0482 : FFE6;
  0483 : 0000;
  0484 : FFF2;
  0485 : 000D;
  0486 : 000A;
  0487 : FFF2;
  0488 : 0006;
  0489 : 0012;
  048A : FFF3;
  048B : 0020;
  048C : FFEB;
  048D : 000B;
  048E : 000C;
  048F : FFF9;
  0490 : 0024;
  0491 : FFF9;
  0492 : FFF3;
  0493 : FFF6;
  0494 : FFEC;
  0495 : FFFD;
  0496 : FFF7;
  0497 : FFF1;
  0498 : 0025;
  0499 : FFE4;
  049A : FFF7;
  049B : FFEA;
  049C : 000A;
  049D : FFDE;
  049E : FFF4;
  049F : 0005;
  04A0 : 0000;
  04A1 : FFCD;
  04A2 : FFE9;
  04A3 : 0016;
  04A4 : 001C;
  04A5 : FFF4;
  04A6 : FFE4;
  04A7 : FFC8;
  04A8 : FFF3;
  04A9 : FFF6;
  04AA : FFEF;
  04AB : FFF8;
  04AC : FFFD;
  04AD : 003A;
  04AE : 002B;
  04AF : 0018;
  04B0 : 0037;
  04B1 : 0007;
  04B2 : FFFC;
  04B3 : FFDF;
  04B4 : 0011;
  04B5 : 0007;
  04B6 : FFF5;
  04B7 : FFE9;
  04B8 : 0015;
  04B9 : FFEA;
  04BA : 0027;
  04BB : 000C;
  04BC : FFED;
  04BD : FFD4;
  04BE : FFF1;
  04BF : 002A;
  04C0 : FFDB;
  04C1 : 0017;
  04C2 : 000A;
  04C3 : 000A;
  04C4 : 0012;
  04C5 : 0012;
  04C6 : 0009;
  04C7 : FFDB;
  04C8 : FFF3;
  04C9 : 0017;
  04CA : 0026;
  04CB : FFDA;
  04CC : 001E;
  04CD : FFD9;
  04CE : 0001;
  04CF : 0001;
  04D0 : FFF3;
  04D1 : FFE4;
  04D2 : 0019;
  04D3 : 0017;
  04D4 : 0016;
  04D5 : 0016;
  04D6 : 0005;
  04D7 : 0027;
  04D8 : 0010;
  04D9 : FFE4;
  04DA : FFFD;
  04DB : FFDD;
  04DC : 0015;
  04DD : 0025;
  04DE : FFF4;
  04DF : FFEB;
  04E0 : FFE9;
  04E1 : 0022;
  04E2 : FFD7;
  04E3 : 0020;
  04E4 : 0003;
  04E5 : 0011;
  04E6 : 0018;
  04E7 : 001D;
  04E8 : FFFE;
  04E9 : FFFA;
  04EA : FFFD;
  04EB : 0025;
  04EC : 0000;
  04ED : 000D;
  04EE : 0003;
  04EF : FFCC;
  04F0 : FFF3;
  04F1 : 0005;
  04F2 : 0024;
  04F3 : FFEE;
  04F4 : FFE8;
  04F5 : FFF9;
  04F6 : 0009;
  04F7 : 0003;
  04F8 : 0005;
  04F9 : FFF7;
  04FA : FFFB;
  04FB : 0024;
  04FC : FFFA;
  04FD : FFDE;
  04FE : 0006;
  04FF : FFE6;
  0500 : 0011;
  0501 : FFF8;
  0502 : FFEE;
  0503 : FFF7;
  0504 : FFD8;
  0505 : FFED;
  0506 : 0019;
  0507 : 0003;
  0508 : FFE0;
  0509 : 001A;
  050A : FFF2;
  050B : 0014;
  050C : FFDF;
  050D : 0005;
  050E : FFF3;
  050F : 0019;
  0510 : FFD1;
  0511 : 0014;
  0512 : 0034;
  0513 : 0019;
  0514 : 0000;
  0515 : FFED;
  0516 : 0016;
  0517 : 0013;
  0518 : 0006;
  0519 : FFE6;
  051A : FFD8;
  051B : FFD2;
  051C : 0018;
  051D : FFDF;
  051E : 0002;
  051F : FFC1;
  0520 : FFF1;
  0521 : FFF0;
  0522 : FFE7;
  0523 : FFEF;
  0524 : 0021;
  0525 : FFFE;
  0526 : FFFF;
  0527 : FFEB;
  0528 : 0019;
  0529 : 0021;
  052A : FFF3;
  052B : 0015;
  052C : FFEB;
  052D : 0025;
  052E : 0020;
  052F : FFE1;
  0530 : FFED;
  0531 : FFE3;
  0532 : 000C;
  0533 : 0011;
  0534 : 0018;
  0535 : 0003;
  0536 : 0014;
  0537 : FFF4;
  0538 : FFE6;
  0539 : 0015;
  053A : FFD5;
  053B : FFE0;
  053C : 0000;
  053D : FFF1;
  053E : FFE9;
  053F : 001D;
  0540 : 0026;
  0541 : 000C;
  0542 : 000C;
  0543 : 0010;
  0544 : 000E;
  0545 : 0024;
  0546 : FFDB;
  0547 : 0003;
  0548 : 0025;
  0549 : FFF1;
  054A : 0017;
  054B : 0019;
  054C : 000E;
  054D : 0006;
  054E : 0016;
  054F : 0021;
  0550 : FFDC;
  0551 : FFEC;
  0552 : FFE2;
  0553 : FFF4;
  0554 : 0017;
  0555 : 0008;
  0556 : FFE7;
  0557 : 002C;
  0558 : 001B;
  0559 : 0016;
  055A : FFD8;
  055B : FFEF;
  055C : 0023;
  055D : FFEB;
  055E : 000E;
  055F : 000D;
  0560 : FFFE;
  0561 : 0009;
  0562 : FFF5;
  0563 : FFEF;
  0564 : FFE7;
  0565 : FFDF;
  0566 : 0019;
  0567 : FFDB;
  0568 : 001D;
  0569 : 0016;
  056A : 0019;
  056B : FFEB;
  056C : FFEB;
  056D : 0012;
  056E : 0001;
  056F : FFF2;
  0570 : 0006;
  0571 : FFDA;
  0572 : FFD5;
  0573 : FFF7;
  0574 : FFDF;
  0575 : 0006;
  0576 : 0010;
  0577 : 0005;
  0578 : FFF5;
  0579 : 0007;
  057A : FFC7;
  057B : FFDB;
  057C : FFFA;
  057D : FFE4;
  057E : 0002;
  057F : 0028;
  0580 : 000F;
  0581 : FFE2;
  0582 : FFF2;
  0583 : 0011;
  0584 : 000B;
  0585 : FFE5;
  0586 : FFCC;
  0587 : FFDD;
  0588 : FFEE;
  0589 : 0010;
  058A : 001C;
  058B : FFE0;
  058C : 0012;
  058D : 0006;
  058E : FFF7;
  058F : 0012;
  0590 : FFD2;
  0591 : 0013;
  0592 : FFD9;
  0593 : 0016;
  0594 : FFDB;
  0595 : FFDD;
  0596 : FFE6;
  0597 : FFD5;
  0598 : FFCE;
  0599 : FFE1;
  059A : FFFB;
  059B : 000E;
  059C : 0007;
  059D : 0008;
  059E : FFF2;
  059F : 002A;
  05A0 : 0012;
  05A1 : 0014;
  05A2 : 0012;
  05A3 : 0028;
  05A4 : 002A;
  05A5 : 0018;
  05A6 : 000B;
  05A7 : 0018;
  05A8 : FFE7;
  05A9 : FFFC;
  05AA : FFE9;
  05AB : 0017;
  05AC : FFEB;
  05AD : 0002;
  05AE : 0008;
  05AF : 001F;
  05B0 : FFF1;
  05B1 : FFF3;
  05B2 : FFFE;
  05B3 : 000F;
  05B4 : FFDC;
  05B5 : 0007;
  05B6 : FFE4;
  05B7 : FFDD;
  05B8 : 001A;
  05B9 : 000F;
  05BA : FFDB;
  05BB : 0009;
  05BC : 0006;
  05BD : FFFE;
  05BE : 001A;
  05BF : FFDE;
  05C0 : FFFC;
  05C1 : 000C;
  05C2 : FFFA;
  05C3 : FFE0;
  05C4 : 0010;
  05C5 : 0008;
  05C6 : FFE2;
  05C7 : FFF9;
  05C8 : FFDC;
  05C9 : 0009;
  05CA : 0013;
  05CB : FFF2;
  05CC : 0024;
  05CD : FFED;
  05CE : 0026;
  05CF : 0003;
  05D0 : FFF2;
  05D1 : 0016;
  05D2 : FFFB;
  05D3 : 0011;
  05D4 : FFE8;
  05D5 : FFF4;
  05D6 : 0019;
  05D7 : FFF8;
  05D8 : FFE7;
  05D9 : FFDD;
  05DA : FFDC;
  05DB : FFEA;
  05DC : FFFF;
  05DD : FFE6;
  05DE : 0009;
  05DF : 001E;
  05E0 : 000E;
  05E1 : 000B;
  05E2 : FFF7;
  05E3 : 0013;
  05E4 : 0012;
  05E5 : FFF4;
  05E6 : 001B;
  05E7 : FFD0;
  05E8 : FFFF;
  05E9 : 0015;
  05EA : 000C;
  05EB : FFE2;
  05EC : FFE4;
  05ED : 0009;
  05EE : FFDE;
  05EF : 0009;
  05F0 : FFEB;
  05F1 : 0013;
  05F2 : 0018;
  05F3 : 0017;
  05F4 : 0016;
  05F5 : FFD8;
  05F6 : FFD0;
  05F7 : FFE5;
  05F8 : 0017;
  05F9 : 0025;
  05FA : FFFA;
  05FB : 0019;
  05FC : FFFF;
  05FD : 000E;
  05FE : 0020;
  05FF : 001A;
END;
