-- conv3_weight
-- Original shape: (32, 32, 3)
DEPTH = 3072;
WIDTH = 16;
ADDRESS_RADIX = HEX;
DATA_RADIX = HEX;
CONTENT BEGIN
  0000 : 0008;
  0001 : 000A;
  0002 : FFFD;
  0003 : FFF2;
  0004 : FFFB;
  0005 : 0021;
  0006 : FFF8;
  0007 : FFF7;
  0008 : 0013;
  0009 : 0008;
  000A : 000D;
  000B : 001C;
  000C : 0012;
  000D : 000A;
  000E : 000E;
  000F : 0013;
  0010 : FFFD;
  0011 : FFF9;
  0012 : 0005;
  0013 : FFF2;
  0014 : FFE4;
  0015 : FFFE;
  0016 : FFF6;
  0017 : 0012;
  0018 : FFEF;
  0019 : FFF5;
  001A : 0005;
  001B : 000B;
  001C : 0002;
  001D : 0007;
  001E : 000C;
  001F : 0012;
  0020 : FFF2;
  0021 : FFEC;
  0022 : FFFB;
  0023 : 0023;
  0024 : 0016;
  0025 : 0011;
  0026 : 0000;
  0027 : 000A;
  0028 : 002D;
  0029 : FFF1;
  002A : FFFB;
  002B : FFFF;
  002C : FFF4;
  002D : FFF9;
  002E : 0018;
  002F : FFEA;
  0030 : 0008;
  0031 : 0001;
  0032 : 000D;
  0033 : 000C;
  0034 : 0008;
  0035 : 0007;
  0036 : 000F;
  0037 : FFFD;
  0038 : FFF3;
  0039 : FFD5;
  003A : 0018;
  003B : 001C;
  003C : FFF6;
  003D : FFF9;
  003E : FFE3;
  003F : FFE8;
  0040 : FFE8;
  0041 : 0010;
  0042 : FFFF;
  0043 : FFF7;
  0044 : 0000;
  0045 : FFF7;
  0046 : FFF7;
  0047 : FFED;
  0048 : FFF1;
  0049 : FFF8;
  004A : FFE7;
  004B : FFED;
  004C : FFF8;
  004D : FFF3;
  004E : 0009;
  004F : 000F;
  0050 : 0012;
  0051 : FFE8;
  0052 : FFE4;
  0053 : 0008;
  0054 : 0009;
  0055 : FFF4;
  0056 : FFF6;
  0057 : 0010;
  0058 : 0014;
  0059 : 000D;
  005A : 000A;
  005B : 0020;
  005C : 0001;
  005D : FFE9;
  005E : 001A;
  005F : FFF1;
  0060 : 0006;
  0061 : 0014;
  0062 : FFF5;
  0063 : 0019;
  0064 : FFFE;
  0065 : 0010;
  0066 : 0012;
  0067 : 0010;
  0068 : FFF4;
  0069 : FFEA;
  006A : FFF3;
  006B : 0004;
  006C : 000F;
  006D : FFFE;
  006E : FFEF;
  006F : FFF0;
  0070 : FFF7;
  0071 : FFED;
  0072 : 0005;
  0073 : FFED;
  0074 : FFFF;
  0075 : 000F;
  0076 : FFF4;
  0077 : 0010;
  0078 : 0019;
  0079 : FFFD;
  007A : 0000;
  007B : 0004;
  007C : FFF6;
  007D : 0001;
  007E : 0012;
  007F : FFF3;
  0080 : FFF6;
  0081 : 001B;
  0082 : FFFC;
  0083 : FFEE;
  0084 : FFDE;
  0085 : FFFE;
  0086 : 0012;
  0087 : FFFE;
  0088 : FFFE;
  0089 : FFF5;
  008A : FFEE;
  008B : FFFC;
  008C : FFF2;
  008D : 0002;
  008E : 0024;
  008F : FFEC;
  0090 : 0015;
  0091 : 000F;
  0092 : FFF4;
  0093 : 0003;
  0094 : FFE4;
  0095 : FFF8;
  0096 : 001E;
  0097 : 0005;
  0098 : 0016;
  0099 : FFFE;
  009A : FFF3;
  009B : FFE8;
  009C : 0001;
  009D : 0004;
  009E : 0005;
  009F : 001F;
  00A0 : FFF6;
  00A1 : FFEE;
  00A2 : FFEA;
  00A3 : 0002;
  00A4 : 0007;
  00A5 : FFFE;
  00A6 : FFF3;
  00A7 : FFFF;
  00A8 : 0006;
  00A9 : FFDE;
  00AA : 0002;
  00AB : 0011;
  00AC : 0011;
  00AD : FFEC;
  00AE : FFFE;
  00AF : 0000;
  00B0 : FFF3;
  00B1 : 0002;
  00B2 : 0010;
  00B3 : 0014;
  00B4 : 0012;
  00B5 : FFF2;
  00B6 : FFF6;
  00B7 : FFF3;
  00B8 : FFF5;
  00B9 : 0004;
  00BA : 000A;
  00BB : FFF1;
  00BC : 0018;
  00BD : 001A;
  00BE : FFEF;
  00BF : FFF2;
  00C0 : FFFB;
  00C1 : 0001;
  00C2 : 001E;
  00C3 : 001E;
  00C4 : FFED;
  00C5 : FFFA;
  00C6 : 0001;
  00C7 : FFF1;
  00C8 : 000E;
  00C9 : FFEE;
  00CA : 000A;
  00CB : FFF5;
  00CC : FFF0;
  00CD : FFFF;
  00CE : FFE3;
  00CF : FFEC;
  00D0 : 000B;
  00D1 : FFF8;
  00D2 : 000B;
  00D3 : FFEE;
  00D4 : 0001;
  00D5 : 000D;
  00D6 : 0018;
  00D7 : FFF7;
  00D8 : 0004;
  00D9 : 0015;
  00DA : FFF4;
  00DB : FFE7;
  00DC : 0017;
  00DD : FFFF;
  00DE : FFF4;
  00DF : 001A;
  00E0 : FFF5;
  00E1 : FFEE;
  00E2 : 000C;
  00E3 : 0012;
  00E4 : FFF6;
  00E5 : FFE6;
  00E6 : FFFB;
  00E7 : FFF5;
  00E8 : 0003;
  00E9 : FFF9;
  00EA : FFE9;
  00EB : 0005;
  00EC : FFED;
  00ED : FFCC;
  00EE : FFE0;
  00EF : 000A;
  00F0 : 0000;
  00F1 : 0017;
  00F2 : 0009;
  00F3 : FFDF;
  00F4 : 001A;
  00F5 : FFF5;
  00F6 : 0004;
  00F7 : FFF1;
  00F8 : 0011;
  00F9 : 0007;
  00FA : FFF8;
  00FB : FFDD;
  00FC : FFEF;
  00FD : FFFB;
  00FE : 0018;
  00FF : FFEA;
  0100 : 0013;
  0101 : FFE4;
  0102 : 000F;
  0103 : FFF5;
  0104 : 0003;
  0105 : FFF6;
  0106 : FFEB;
  0107 : FFF7;
  0108 : 0015;
  0109 : FFDC;
  010A : FFEF;
  010B : 0019;
  010C : FFFF;
  010D : FFFC;
  010E : FFF3;
  010F : 0012;
  0110 : 0004;
  0111 : FFF0;
  0112 : FFEF;
  0113 : FFF7;
  0114 : 0011;
  0115 : 0004;
  0116 : 0005;
  0117 : FFF7;
  0118 : FFFE;
  0119 : FFE3;
  011A : 000A;
  011B : FFF8;
  011C : 0002;
  011D : FFF4;
  011E : 000E;
  011F : FFF1;
  0120 : FFFD;
  0121 : FFF1;
  0122 : 0012;
  0123 : FFFB;
  0124 : 0013;
  0125 : FFE9;
  0126 : 000E;
  0127 : FFEF;
  0128 : FFF1;
  0129 : FFF3;
  012A : 0003;
  012B : 0005;
  012C : 0003;
  012D : FFFE;
  012E : 000C;
  012F : 0016;
  0130 : FFE2;
  0131 : FFFB;
  0132 : 0010;
  0133 : FFFE;
  0134 : 000A;
  0135 : FFDA;
  0136 : FFED;
  0137 : 0001;
  0138 : FFEE;
  0139 : 000F;
  013A : 002C;
  013B : FFF8;
  013C : 001D;
  013D : FFF7;
  013E : 0007;
  013F : 0008;
  0140 : 000E;
  0141 : FFFC;
  0142 : 0007;
  0143 : FFF1;
  0144 : FFFA;
  0145 : FFE7;
  0146 : 0011;
  0147 : 0001;
  0148 : 0018;
  0149 : FFF7;
  014A : 0003;
  014B : 0013;
  014C : FFE8;
  014D : FFF4;
  014E : 000B;
  014F : 002C;
  0150 : FFFC;
  0151 : 0003;
  0152 : 0019;
  0153 : FFDE;
  0154 : 0010;
  0155 : 0006;
  0156 : 0005;
  0157 : FFFD;
  0158 : FFFC;
  0159 : 001F;
  015A : 0005;
  015B : FFE2;
  015C : FFE0;
  015D : 0012;
  015E : 000C;
  015F : FFF7;
  0160 : 0033;
  0161 : FFED;
  0162 : FFFF;
  0163 : FFE9;
  0164 : FFF1;
  0165 : FFED;
  0166 : FFE7;
  0167 : FFF9;
  0168 : 000D;
  0169 : 0009;
  016A : 0017;
  016B : FFFD;
  016C : 0003;
  016D : 0010;
  016E : 0013;
  016F : 000C;
  0170 : FFFD;
  0171 : FFFF;
  0172 : 000E;
  0173 : FFF7;
  0174 : 0009;
  0175 : 0014;
  0176 : 0006;
  0177 : 0001;
  0178 : FFF0;
  0179 : FFF9;
  017A : 0014;
  017B : FFFD;
  017C : FFF0;
  017D : 000A;
  017E : FFF9;
  017F : 0002;
  0180 : FFFB;
  0181 : 0002;
  0182 : FFFC;
  0183 : 000B;
  0184 : FFE9;
  0185 : 001D;
  0186 : FFF0;
  0187 : 000E;
  0188 : FFF3;
  0189 : FFF4;
  018A : 0007;
  018B : 0030;
  018C : 0003;
  018D : FFF4;
  018E : FFF7;
  018F : FFFB;
  0190 : 0011;
  0191 : FFF6;
  0192 : 000C;
  0193 : 0003;
  0194 : 0003;
  0195 : FFF4;
  0196 : FFF7;
  0197 : FFF8;
  0198 : 001A;
  0199 : FFFE;
  019A : FFFF;
  019B : FFF3;
  019C : FFED;
  019D : 000D;
  019E : FFEF;
  019F : 0003;
  01A0 : 001C;
  01A1 : FFFC;
  01A2 : FFE1;
  01A3 : 000A;
  01A4 : FFEB;
  01A5 : FFE1;
  01A6 : FFF8;
  01A7 : 0004;
  01A8 : FFEF;
  01A9 : FFF6;
  01AA : FFE6;
  01AB : 0004;
  01AC : FFFA;
  01AD : FFF7;
  01AE : FFF5;
  01AF : FFF2;
  01B0 : 0000;
  01B1 : FFFD;
  01B2 : 0026;
  01B3 : FFF4;
  01B4 : 000F;
  01B5 : FFF4;
  01B6 : 000D;
  01B7 : FFF9;
  01B8 : 0025;
  01B9 : 0006;
  01BA : FFFB;
  01BB : 0014;
  01BC : 001C;
  01BD : 0015;
  01BE : 001A;
  01BF : FFFE;
  01C0 : FFFC;
  01C1 : 001D;
  01C2 : 0003;
  01C3 : 001B;
  01C4 : FFF1;
  01C5 : FFF7;
  01C6 : FFF6;
  01C7 : FFFD;
  01C8 : 0010;
  01C9 : 000C;
  01CA : FFF7;
  01CB : 000C;
  01CC : 0013;
  01CD : FFE2;
  01CE : FFE9;
  01CF : FFF5;
  01D0 : 000C;
  01D1 : 000B;
  01D2 : FFEE;
  01D3 : FFF8;
  01D4 : FFE8;
  01D5 : FFFC;
  01D6 : FFF8;
  01D7 : FFF4;
  01D8 : 0016;
  01D9 : 0004;
  01DA : FFEC;
  01DB : FFEF;
  01DC : 000D;
  01DD : 001C;
  01DE : FFFD;
  01DF : FFF9;
  01E0 : 0017;
  01E1 : 000E;
  01E2 : FFFF;
  01E3 : 000C;
  01E4 : 0017;
  01E5 : 0008;
  01E6 : 0004;
  01E7 : 001B;
  01E8 : 000F;
  01E9 : FFE1;
  01EA : FFFE;
  01EB : FFED;
  01EC : 0012;
  01ED : FFED;
  01EE : 0019;
  01EF : FFF4;
  01F0 : FFFF;
  01F1 : 0002;
  01F2 : FFF3;
  01F3 : FFF6;
  01F4 : FFF5;
  01F5 : 0011;
  01F6 : 0008;
  01F7 : FFE8;
  01F8 : 0020;
  01F9 : FFFA;
  01FA : FFE8;
  01FB : 0008;
  01FC : FFFC;
  01FD : FFF2;
  01FE : FFFF;
  01FF : 0000;
  0200 : 0017;
  0201 : 0010;
  0202 : FFEE;
  0203 : 0005;
  0204 : FFC0;
  0205 : FFF0;
  0206 : FFDD;
  0207 : 0020;
  0208 : 0004;
  0209 : FFEB;
  020A : FFE9;
  020B : 000F;
  020C : FFEB;
  020D : FFE5;
  020E : 0018;
  020F : FFE9;
  0210 : FFF4;
  0211 : 0009;
  0212 : 0010;
  0213 : FFF8;
  0214 : FFE6;
  0215 : FFFD;
  0216 : 0015;
  0217 : FFFC;
  0218 : FFFD;
  0219 : 0011;
  021A : FFFE;
  021B : 0010;
  021C : FFFC;
  021D : FFFA;
  021E : FFF3;
  021F : 0014;
  0220 : 000C;
  0221 : 0013;
  0222 : FFF0;
  0223 : 0002;
  0224 : 0003;
  0225 : FFFB;
  0226 : FFEA;
  0227 : FFF5;
  0228 : 0015;
  0229 : FFF6;
  022A : FFED;
  022B : 0019;
  022C : 0006;
  022D : FFED;
  022E : FFF6;
  022F : 000A;
  0230 : FFEA;
  0231 : FFF7;
  0232 : FFEA;
  0233 : FFEA;
  0234 : 000B;
  0235 : FFF1;
  0236 : FFF8;
  0237 : 0001;
  0238 : 0000;
  0239 : 0012;
  023A : FFF8;
  023B : 0008;
  023C : 001A;
  023D : 0014;
  023E : 0003;
  023F : 0008;
  0240 : 000C;
  0241 : FFE8;
  0242 : 0010;
  0243 : 0002;
  0244 : 0019;
  0245 : 0003;
  0246 : FFEE;
  0247 : 0016;
  0248 : FFF1;
  0249 : FFF7;
  024A : FFEF;
  024B : FFF2;
  024C : FFF9;
  024D : FFE4;
  024E : FFFE;
  024F : FFF0;
  0250 : FFE4;
  0251 : 0010;
  0252 : FFF6;
  0253 : 0011;
  0254 : 000B;
  0255 : 0017;
  0256 : 000A;
  0257 : FFD9;
  0258 : FFE7;
  0259 : FFF6;
  025A : FFFE;
  025B : 000E;
  025C : FFF6;
  025D : 000B;
  025E : 0014;
  025F : FFEB;
  0260 : FFEF;
  0261 : FFED;
  0262 : 0019;
  0263 : 0012;
  0264 : 0019;
  0265 : 0022;
  0266 : 0000;
  0267 : FFFB;
  0268 : 001C;
  0269 : FFFC;
  026A : FFF4;
  026B : 0012;
  026C : FFF9;
  026D : 0020;
  026E : 0024;
  026F : FFEC;
  0270 : 0013;
  0271 : 0009;
  0272 : FFFE;
  0273 : 0008;
  0274 : 0010;
  0275 : FFF2;
  0276 : FFED;
  0277 : FFF7;
  0278 : 0009;
  0279 : 0025;
  027A : FFF7;
  027B : FFE4;
  027C : 0012;
  027D : 000A;
  027E : 0005;
  027F : FFF9;
  0280 : FFE8;
  0281 : FFE3;
  0282 : FFF7;
  0283 : FFEE;
  0284 : FFFE;
  0285 : 0016;
  0286 : FFF9;
  0287 : FFFF;
  0288 : FFEF;
  0289 : 0028;
  028A : 0013;
  028B : FFEF;
  028C : 0010;
  028D : 0005;
  028E : FFF4;
  028F : 001B;
  0290 : 0019;
  0291 : FFFA;
  0292 : FFF7;
  0293 : FFFB;
  0294 : 0001;
  0295 : 0007;
  0296 : FFE7;
  0297 : 001A;
  0298 : 0004;
  0299 : FFF0;
  029A : 0001;
  029B : FFFC;
  029C : FFFA;
  029D : 0007;
  029E : 0006;
  029F : 001C;
  02A0 : 0002;
  02A1 : 0000;
  02A2 : 001C;
  02A3 : 0001;
  02A4 : FFEF;
  02A5 : 000E;
  02A6 : 000D;
  02A7 : 0012;
  02A8 : FFEF;
  02A9 : 0006;
  02AA : FFFE;
  02AB : 002F;
  02AC : FFFE;
  02AD : 000A;
  02AE : 0014;
  02AF : FFE4;
  02B0 : FFED;
  02B1 : 0009;
  02B2 : FFF9;
  02B3 : 0001;
  02B4 : FFF8;
  02B5 : FFDA;
  02B6 : FFF8;
  02B7 : 000A;
  02B8 : FFEC;
  02B9 : FFF9;
  02BA : 0010;
  02BB : 000D;
  02BC : 001A;
  02BD : FFE0;
  02BE : FFEA;
  02BF : FFF5;
  02C0 : FFF5;
  02C1 : 000E;
  02C2 : 0009;
  02C3 : FFFC;
  02C4 : 001F;
  02C5 : FFFE;
  02C6 : FFEC;
  02C7 : 000E;
  02C8 : FFF2;
  02C9 : FFFB;
  02CA : FFE5;
  02CB : FFF1;
  02CC : 0000;
  02CD : FFEE;
  02CE : FFF3;
  02CF : FFF2;
  02D0 : 0004;
  02D1 : 001D;
  02D2 : FFFE;
  02D3 : FFF6;
  02D4 : 0018;
  02D5 : FFDE;
  02D6 : FFF7;
  02D7 : 001C;
  02D8 : FFF1;
  02D9 : FFEE;
  02DA : 0001;
  02DB : FFF9;
  02DC : 000E;
  02DD : 000E;
  02DE : 0023;
  02DF : 000F;
  02E0 : FFFB;
  02E1 : 000D;
  02E2 : 0016;
  02E3 : 0010;
  02E4 : FFFF;
  02E5 : 0014;
  02E6 : 0002;
  02E7 : 000A;
  02E8 : 0004;
  02E9 : 0003;
  02EA : FFF0;
  02EB : 0000;
  02EC : FFE0;
  02ED : 0001;
  02EE : 000A;
  02EF : 0011;
  02F0 : FFFD;
  02F1 : FFF3;
  02F2 : 0001;
  02F3 : 0000;
  02F4 : FFE2;
  02F5 : 0000;
  02F6 : FFEF;
  02F7 : 000C;
  02F8 : 0012;
  02F9 : FFF2;
  02FA : 0006;
  02FB : 0010;
  02FC : 000B;
  02FD : 0002;
  02FE : 0007;
  02FF : 000E;
  0300 : FFED;
  0301 : 0003;
  0302 : 0002;
  0303 : 0007;
  0304 : 000F;
  0305 : 0004;
  0306 : 0005;
  0307 : 0008;
  0308 : FFF5;
  0309 : 001A;
  030A : FFFB;
  030B : 0022;
  030C : FFF3;
  030D : 0014;
  030E : 0008;
  030F : FFF8;
  0310 : 0005;
  0311 : FFEA;
  0312 : 0004;
  0313 : FFFF;
  0314 : 0001;
  0315 : 0008;
  0316 : FFF7;
  0317 : 0022;
  0318 : FFF2;
  0319 : 000B;
  031A : 0008;
  031B : FFE9;
  031C : 000A;
  031D : 0005;
  031E : 0006;
  031F : 0008;
  0320 : FFE6;
  0321 : FFE3;
  0322 : 0003;
  0323 : FFF8;
  0324 : FFF1;
  0325 : FFF4;
  0326 : FFF0;
  0327 : 0012;
  0328 : FFE6;
  0329 : 0014;
  032A : FFE4;
  032B : 000A;
  032C : FFFF;
  032D : FFE8;
  032E : 0000;
  032F : FFD1;
  0330 : 0003;
  0331 : FFFE;
  0332 : 0021;
  0333 : FFEB;
  0334 : 0021;
  0335 : FFD8;
  0336 : FFFA;
  0337 : 0021;
  0338 : 0003;
  0339 : FFF7;
  033A : 000D;
  033B : FFDB;
  033C : FFF0;
  033D : 000F;
  033E : 0012;
  033F : 000C;
  0340 : FFFE;
  0341 : FFE6;
  0342 : FFE6;
  0343 : 0003;
  0344 : FFFF;
  0345 : FFEE;
  0346 : FFF3;
  0347 : FFDC;
  0348 : FFDC;
  0349 : FFDF;
  034A : FFD8;
  034B : FFF7;
  034C : 000B;
  034D : 000E;
  034E : FFED;
  034F : 0001;
  0350 : FFF1;
  0351 : 0003;
  0352 : 0007;
  0353 : 001D;
  0354 : FFEC;
  0355 : FFE3;
  0356 : 000F;
  0357 : FFFC;
  0358 : FFF5;
  0359 : FFFB;
  035A : FFFC;
  035B : 0013;
  035C : FFDF;
  035D : FFF8;
  035E : 0029;
  035F : 0004;
  0360 : FFEB;
  0361 : FFF1;
  0362 : 001F;
  0363 : 0016;
  0364 : FFE6;
  0365 : FFED;
  0366 : FFE8;
  0367 : 0010;
  0368 : 0003;
  0369 : FFF5;
  036A : 0008;
  036B : FFF1;
  036C : FFF8;
  036D : FFF1;
  036E : FFDE;
  036F : FFEC;
  0370 : 000E;
  0371 : 0006;
  0372 : 0022;
  0373 : FFF9;
  0374 : 0004;
  0375 : 000C;
  0376 : 0005;
  0377 : 0011;
  0378 : 0008;
  0379 : FFF2;
  037A : 0020;
  037B : 0010;
  037C : FFFA;
  037D : FFFA;
  037E : FFFE;
  037F : 001D;
  0380 : 001D;
  0381 : FFE5;
  0382 : 0000;
  0383 : 0016;
  0384 : FFF8;
  0385 : FFF8;
  0386 : FFED;
  0387 : FFF6;
  0388 : 000B;
  0389 : 000A;
  038A : 0011;
  038B : FFEC;
  038C : 000A;
  038D : FFE5;
  038E : FFF2;
  038F : 0015;
  0390 : FFE9;
  0391 : FFFD;
  0392 : FFE4;
  0393 : FFDE;
  0394 : 0004;
  0395 : 0015;
  0396 : FFE7;
  0397 : 000E;
  0398 : 0003;
  0399 : 000C;
  039A : 000D;
  039B : FFEF;
  039C : FFF8;
  039D : 0004;
  039E : 0006;
  039F : FFF8;
  03A0 : FFE3;
  03A1 : 0007;
  03A2 : 0014;
  03A3 : FFF7;
  03A4 : FFF2;
  03A5 : FFF6;
  03A6 : FFDF;
  03A7 : FFFD;
  03A8 : FFF8;
  03A9 : 0003;
  03AA : FFE0;
  03AB : FFEE;
  03AC : 000E;
  03AD : 0002;
  03AE : 000D;
  03AF : FFF5;
  03B0 : 0014;
  03B1 : 0009;
  03B2 : 0017;
  03B3 : FFF7;
  03B4 : 0015;
  03B5 : FFF6;
  03B6 : 0005;
  03B7 : 0009;
  03B8 : FFFA;
  03B9 : 0005;
  03BA : 000C;
  03BB : 0013;
  03BC : FFF7;
  03BD : FFFB;
  03BE : FFED;
  03BF : 000D;
  03C0 : FFED;
  03C1 : 0006;
  03C2 : FFEE;
  03C3 : FFEF;
  03C4 : 0006;
  03C5 : 0029;
  03C6 : 000F;
  03C7 : FFFC;
  03C8 : FFFF;
  03C9 : FFFC;
  03CA : 000D;
  03CB : 001F;
  03CC : 0003;
  03CD : 0010;
  03CE : 001F;
  03CF : 000B;
  03D0 : FFF3;
  03D1 : 0021;
  03D2 : 0001;
  03D3 : FFFB;
  03D4 : 0000;
  03D5 : FFFB;
  03D6 : FFD7;
  03D7 : 0008;
  03D8 : FFE5;
  03D9 : 0000;
  03DA : FFE7;
  03DB : FFEF;
  03DC : 0010;
  03DD : 0013;
  03DE : FFFB;
  03DF : FFFA;
  03E0 : 0010;
  03E1 : 0002;
  03E2 : FFEE;
  03E3 : 001E;
  03E4 : 001D;
  03E5 : FFF6;
  03E6 : 000D;
  03E7 : FFF5;
  03E8 : 0006;
  03E9 : FFE6;
  03EA : 0010;
  03EB : FFF4;
  03EC : FFF4;
  03ED : FFDD;
  03EE : FFF2;
  03EF : FFD7;
  03F0 : FFFC;
  03F1 : FFE1;
  03F2 : 0013;
  03F3 : 0007;
  03F4 : FFDD;
  03F5 : 001C;
  03F6 : FFF8;
  03F7 : 0006;
  03F8 : 0019;
  03F9 : FFF1;
  03FA : 0007;
  03FB : 0018;
  03FC : 0008;
  03FD : FFE3;
  03FE : FFF9;
  03FF : FFFE;
  0400 : FFEA;
  0401 : 0018;
  0402 : 0008;
  0403 : 0004;
  0404 : FFE7;
  0405 : FFF4;
  0406 : 000E;
  0407 : FFE6;
  0408 : FFE1;
  0409 : FFFA;
  040A : FFFB;
  040B : FFFA;
  040C : 000D;
  040D : FFFD;
  040E : FFF0;
  040F : 0008;
  0410 : FFF4;
  0411 : 0004;
  0412 : FFF0;
  0413 : 0019;
  0414 : FFFA;
  0415 : 0007;
  0416 : 0004;
  0417 : 0004;
  0418 : 0004;
  0419 : 0001;
  041A : 0006;
  041B : FFF7;
  041C : 001B;
  041D : 000D;
  041E : 0006;
  041F : FFFB;
  0420 : FFDF;
  0421 : FFEC;
  0422 : FFFE;
  0423 : FFFC;
  0424 : FFE1;
  0425 : 0007;
  0426 : 0019;
  0427 : FFFA;
  0428 : 0023;
  0429 : 0019;
  042A : 0020;
  042B : FFEC;
  042C : 000A;
  042D : 000A;
  042E : FFEF;
  042F : FFF0;
  0430 : FFFF;
  0431 : 0001;
  0432 : FFDC;
  0433 : FFF2;
  0434 : FFFD;
  0435 : 000E;
  0436 : 0029;
  0437 : FFFA;
  0438 : 0017;
  0439 : FFF5;
  043A : FFFD;
  043B : FFED;
  043C : 000B;
  043D : FFFC;
  043E : 001B;
  043F : 0000;
  0440 : 0003;
  0441 : 0019;
  0442 : 001D;
  0443 : 0015;
  0444 : 0006;
  0445 : FFFC;
  0446 : 0011;
  0447 : 0011;
  0448 : 0014;
  0449 : FFF8;
  044A : 0016;
  044B : 000B;
  044C : 000D;
  044D : FFF5;
  044E : 001E;
  044F : FFFD;
  0450 : 0002;
  0451 : FFF6;
  0452 : 0002;
  0453 : FFFF;
  0454 : 0012;
  0455 : FFE0;
  0456 : FFE5;
  0457 : FFEB;
  0458 : FFE5;
  0459 : FFF8;
  045A : 001B;
  045B : 0006;
  045C : FFF5;
  045D : FFF5;
  045E : 000D;
  045F : FFE8;
  0460 : FFE2;
  0461 : 0005;
  0462 : 000A;
  0463 : 001C;
  0464 : FFED;
  0465 : FFE6;
  0466 : FFEA;
  0467 : 0004;
  0468 : 0001;
  0469 : FFEC;
  046A : FFFA;
  046B : FFF7;
  046C : 001D;
  046D : 0009;
  046E : FFE9;
  046F : 000B;
  0470 : 0010;
  0471 : 0012;
  0472 : FFFD;
  0473 : 0005;
  0474 : FFF1;
  0475 : 0018;
  0476 : FFF6;
  0477 : 0000;
  0478 : 0009;
  0479 : 000F;
  047A : FFED;
  047B : 001F;
  047C : 0003;
  047D : FFE4;
  047E : FFF4;
  047F : 0004;
  0480 : FFFB;
  0481 : FFF1;
  0482 : 000B;
  0483 : 000A;
  0484 : 0028;
  0485 : FFFC;
  0486 : 0017;
  0487 : FFF4;
  0488 : 0009;
  0489 : FFD1;
  048A : FFEB;
  048B : 0001;
  048C : 0014;
  048D : 0014;
  048E : 0026;
  048F : FFEE;
  0490 : 000F;
  0491 : FFF9;
  0492 : 000B;
  0493 : 0004;
  0494 : FFF8;
  0495 : 0009;
  0496 : FFF9;
  0497 : FFF7;
  0498 : FFF0;
  0499 : FFFE;
  049A : FFF5;
  049B : FFF8;
  049C : FFF6;
  049D : FFE6;
  049E : 0007;
  049F : FFF8;
  04A0 : FFEF;
  04A1 : FFF9;
  04A2 : 0004;
  04A3 : 0017;
  04A4 : 000B;
  04A5 : FFEE;
  04A6 : FFEC;
  04A7 : 0005;
  04A8 : FFE4;
  04A9 : 001B;
  04AA : 000F;
  04AB : 0015;
  04AC : FFFA;
  04AD : 000A;
  04AE : FFF8;
  04AF : FFF9;
  04B0 : 0002;
  04B1 : 0003;
  04B2 : 0010;
  04B3 : 0009;
  04B4 : 000C;
  04B5 : 0003;
  04B6 : FFF3;
  04B7 : FFE8;
  04B8 : 000E;
  04B9 : 0018;
  04BA : FFFD;
  04BB : 000E;
  04BC : FFCF;
  04BD : 0005;
  04BE : 000C;
  04BF : FFFB;
  04C0 : FFEA;
  04C1 : 0007;
  04C2 : FFEA;
  04C3 : FFFC;
  04C4 : FFFF;
  04C5 : 000F;
  04C6 : 0006;
  04C7 : 0014;
  04C8 : FFD9;
  04C9 : FFFC;
  04CA : 0008;
  04CB : FFF6;
  04CC : FFFD;
  04CD : 0008;
  04CE : FFFB;
  04CF : 001E;
  04D0 : 0012;
  04D1 : 0013;
  04D2 : FFF9;
  04D3 : 001A;
  04D4 : FFFC;
  04D5 : 0014;
  04D6 : FFFB;
  04D7 : 0017;
  04D8 : 0008;
  04D9 : FFF5;
  04DA : FFF2;
  04DB : 000B;
  04DC : 0012;
  04DD : FFFB;
  04DE : FFDF;
  04DF : 0013;
  04E0 : 000B;
  04E1 : 0005;
  04E2 : 0010;
  04E3 : 0013;
  04E4 : FFF8;
  04E5 : FFE4;
  04E6 : 0008;
  04E7 : FFF1;
  04E8 : FFE5;
  04E9 : FFFA;
  04EA : FFF7;
  04EB : FFEC;
  04EC : FFE7;
  04ED : 0006;
  04EE : 0019;
  04EF : 0008;
  04F0 : 0004;
  04F1 : 0003;
  04F2 : FFE7;
  04F3 : 0012;
  04F4 : 0003;
  04F5 : 000A;
  04F6 : 0026;
  04F7 : 0007;
  04F8 : 000F;
  04F9 : 001C;
  04FA : FFE8;
  04FB : 000E;
  04FC : FFEC;
  04FD : 000D;
  04FE : 0021;
  04FF : 0005;
  0500 : FFF3;
  0501 : 001C;
  0502 : 0003;
  0503 : 000A;
  0504 : 000F;
  0505 : FFF3;
  0506 : FFDF;
  0507 : FFE9;
  0508 : 000C;
  0509 : FFE9;
  050A : 0010;
  050B : 0000;
  050C : 0004;
  050D : FFF0;
  050E : 0022;
  050F : 001B;
  0510 : FFEE;
  0511 : 0002;
  0512 : FFF6;
  0513 : 0014;
  0514 : 0026;
  0515 : 0013;
  0516 : 0008;
  0517 : 0003;
  0518 : 000F;
  0519 : 000A;
  051A : 0013;
  051B : 0029;
  051C : 0008;
  051D : 0002;
  051E : FFFA;
  051F : 0013;
  0520 : FFF2;
  0521 : FFE3;
  0522 : FFFF;
  0523 : FFFE;
  0524 : FFEE;
  0525 : FFE7;
  0526 : 001C;
  0527 : 0012;
  0528 : FFEF;
  0529 : FFF1;
  052A : FFF8;
  052B : 000C;
  052C : 000E;
  052D : 0008;
  052E : FFF4;
  052F : FFE9;
  0530 : 001E;
  0531 : 0005;
  0532 : FFE9;
  0533 : 0009;
  0534 : FFED;
  0535 : FFF5;
  0536 : 0007;
  0537 : 000D;
  0538 : 001B;
  0539 : 000A;
  053A : 000C;
  053B : FFF0;
  053C : FFFC;
  053D : FFDA;
  053E : 0009;
  053F : FFF8;
  0540 : FFEA;
  0541 : 000C;
  0542 : 0019;
  0543 : FFF2;
  0544 : FFE1;
  0545 : 000F;
  0546 : FFFE;
  0547 : FFFE;
  0548 : FFF7;
  0549 : FFED;
  054A : FFF8;
  054B : 0028;
  054C : FFF3;
  054D : 001E;
  054E : 0002;
  054F : FFFD;
  0550 : 0000;
  0551 : FFEE;
  0552 : FFFF;
  0553 : FFE6;
  0554 : FFFC;
  0555 : FFF9;
  0556 : 0017;
  0557 : 0025;
  0558 : 000B;
  0559 : FFE9;
  055A : FFF9;
  055B : 000C;
  055C : 0009;
  055D : FFEB;
  055E : 000D;
  055F : 0012;
  0560 : 0017;
  0561 : FFEB;
  0562 : 0008;
  0563 : FFF6;
  0564 : FFDF;
  0565 : FFFD;
  0566 : FFEE;
  0567 : 0003;
  0568 : 0001;
  0569 : 000C;
  056A : FFFD;
  056B : 0011;
  056C : 0009;
  056D : 0005;
  056E : FFFE;
  056F : FFF0;
  0570 : 0005;
  0571 : 0011;
  0572 : FFF0;
  0573 : 0018;
  0574 : FFFF;
  0575 : 0002;
  0576 : 0019;
  0577 : FFEA;
  0578 : 000D;
  0579 : 0005;
  057A : 0020;
  057B : 0012;
  057C : 0007;
  057D : 0018;
  057E : 001B;
  057F : 0003;
  0580 : 0001;
  0581 : 000C;
  0582 : FFFD;
  0583 : 0000;
  0584 : 0002;
  0585 : FFFC;
  0586 : 0008;
  0587 : 0010;
  0588 : FFEB;
  0589 : FFEC;
  058A : FFF4;
  058B : FFE3;
  058C : 0004;
  058D : 000A;
  058E : FFF0;
  058F : 0011;
  0590 : FFEE;
  0591 : 0004;
  0592 : 0018;
  0593 : 000C;
  0594 : FFF7;
  0595 : 0011;
  0596 : FFDB;
  0597 : FFF3;
  0598 : FFFD;
  0599 : 000F;
  059A : FFF6;
  059B : 0018;
  059C : FFF1;
  059D : 0006;
  059E : FFF8;
  059F : FFF9;
  05A0 : 000B;
  05A1 : 0018;
  05A2 : FFEB;
  05A3 : 0001;
  05A4 : FFF9;
  05A5 : 0013;
  05A6 : 0003;
  05A7 : FFE9;
  05A8 : 001B;
  05A9 : FFFF;
  05AA : 000B;
  05AB : FFEA;
  05AC : FFFC;
  05AD : 0011;
  05AE : FFFF;
  05AF : 001B;
  05B0 : FFF7;
  05B1 : FFE4;
  05B2 : FFE4;
  05B3 : FFEF;
  05B4 : 000D;
  05B5 : 000B;
  05B6 : FFF9;
  05B7 : 0003;
  05B8 : 0009;
  05B9 : 000E;
  05BA : FFCD;
  05BB : FFF4;
  05BC : 0015;
  05BD : 000D;
  05BE : 0015;
  05BF : 0007;
  05C0 : FFF9;
  05C1 : FFFE;
  05C2 : FFEC;
  05C3 : 000B;
  05C4 : 0028;
  05C5 : 0015;
  05C6 : FFF6;
  05C7 : 0016;
  05C8 : 0005;
  05C9 : 0004;
  05CA : 0014;
  05CB : 0006;
  05CC : 0006;
  05CD : 0003;
  05CE : 0024;
  05CF : FFEA;
  05D0 : 0008;
  05D1 : 0004;
  05D2 : 0005;
  05D3 : 0006;
  05D4 : 000F;
  05D5 : 0008;
  05D6 : FFF1;
  05D7 : 0015;
  05D8 : 0021;
  05D9 : 0002;
  05DA : 001C;
  05DB : 000A;
  05DC : FFEF;
  05DD : 0018;
  05DE : FFE0;
  05DF : 0002;
  05E0 : FFF0;
  05E1 : 0012;
  05E2 : FFEB;
  05E3 : 0001;
  05E4 : FFDD;
  05E5 : 0012;
  05E6 : 0018;
  05E7 : FFF7;
  05E8 : FFE5;
  05E9 : FFFA;
  05EA : 0014;
  05EB : FFE1;
  05EC : FFEF;
  05ED : 0016;
  05EE : 0001;
  05EF : FFFD;
  05F0 : FFE4;
  05F1 : 0003;
  05F2 : FFEE;
  05F3 : 000C;
  05F4 : FFFF;
  05F5 : FFFE;
  05F6 : 0017;
  05F7 : FFF7;
  05F8 : FFFE;
  05F9 : FFF6;
  05FA : FFF9;
  05FB : 0002;
  05FC : FFFF;
  05FD : 0002;
  05FE : FFF3;
  05FF : FFF7;
  0600 : FFFC;
  0601 : 0004;
  0602 : FFE3;
  0603 : 0016;
  0604 : FFDD;
  0605 : FFF1;
  0606 : 0004;
  0607 : FFFC;
  0608 : 0010;
  0609 : FFFB;
  060A : FFF5;
  060B : FFE9;
  060C : 000F;
  060D : FFF8;
  060E : FFF8;
  060F : FFF0;
  0610 : FFF8;
  0611 : 0005;
  0612 : 0008;
  0613 : 0016;
  0614 : 0012;
  0615 : 0001;
  0616 : FFEF;
  0617 : FFFA;
  0618 : 0019;
  0619 : FFFA;
  061A : 0003;
  061B : 001C;
  061C : FFD7;
  061D : 001B;
  061E : FFF5;
  061F : 000E;
  0620 : 000F;
  0621 : 001D;
  0622 : 0019;
  0623 : FFE1;
  0624 : FFE4;
  0625 : 0004;
  0626 : FFFC;
  0627 : 000A;
  0628 : 0004;
  0629 : FFE7;
  062A : 000C;
  062B : 0001;
  062C : FFF8;
  062D : FFFF;
  062E : 0016;
  062F : 0019;
  0630 : 0022;
  0631 : 0013;
  0632 : 0008;
  0633 : 0020;
  0634 : 0000;
  0635 : 0009;
  0636 : 0005;
  0637 : FFFD;
  0638 : 0002;
  0639 : FFFA;
  063A : FFF3;
  063B : 0006;
  063C : FFE5;
  063D : 000A;
  063E : 0001;
  063F : 001E;
  0640 : FFF1;
  0641 : 0011;
  0642 : FFF9;
  0643 : FFEA;
  0644 : 0002;
  0645 : FFFE;
  0646 : 0019;
  0647 : FFFE;
  0648 : 0003;
  0649 : 0006;
  064A : 0004;
  064B : 0002;
  064C : FFF6;
  064D : 0001;
  064E : FFFC;
  064F : FFEB;
  0650 : FFE6;
  0651 : 000B;
  0652 : 000D;
  0653 : FFFF;
  0654 : 0000;
  0655 : 0003;
  0656 : FFEF;
  0657 : 0006;
  0658 : FFEB;
  0659 : FFF8;
  065A : FFF2;
  065B : FFEA;
  065C : FFED;
  065D : 0012;
  065E : 0003;
  065F : 000B;
  0660 : FFEB;
  0661 : 000A;
  0662 : FFFF;
  0663 : 0008;
  0664 : FFF1;
  0665 : FFDC;
  0666 : 0008;
  0667 : 0012;
  0668 : 000E;
  0669 : FFF0;
  066A : 0007;
  066B : 000E;
  066C : FFE8;
  066D : FFE4;
  066E : 000C;
  066F : 0003;
  0670 : 0007;
  0671 : 0008;
  0672 : 001F;
  0673 : FFF1;
  0674 : FFE4;
  0675 : FFED;
  0676 : 0006;
  0677 : 0005;
  0678 : FFF0;
  0679 : 0004;
  067A : FFDD;
  067B : FFFE;
  067C : FFD8;
  067D : 0000;
  067E : 0011;
  067F : 0009;
  0680 : 0001;
  0681 : 0006;
  0682 : 000A;
  0683 : FFFC;
  0684 : FFE8;
  0685 : FFFC;
  0686 : FFFD;
  0687 : 0003;
  0688 : FFF8;
  0689 : 0006;
  068A : FFF3;
  068B : 000E;
  068C : 0020;
  068D : 0003;
  068E : FFF6;
  068F : 0003;
  0690 : FFF3;
  0691 : FFEB;
  0692 : FFED;
  0693 : FFFF;
  0694 : 0012;
  0695 : FFFF;
  0696 : FFE2;
  0697 : 000E;
  0698 : FFE9;
  0699 : 0003;
  069A : FFEA;
  069B : 001B;
  069C : FFFC;
  069D : FFE0;
  069E : 0002;
  069F : 0017;
  06A0 : 001C;
  06A1 : 001C;
  06A2 : FFDE;
  06A3 : 000A;
  06A4 : FFF3;
  06A5 : FFFC;
  06A6 : FFF9;
  06A7 : 0004;
  06A8 : FFFF;
  06A9 : FFFF;
  06AA : FFF2;
  06AB : FFDA;
  06AC : FFE1;
  06AD : FFF9;
  06AE : FFFC;
  06AF : FFED;
  06B0 : 0004;
  06B1 : FFFB;
  06B2 : 0019;
  06B3 : 000D;
  06B4 : FFE7;
  06B5 : 0007;
  06B6 : 000D;
  06B7 : 000C;
  06B8 : FFF0;
  06B9 : 0003;
  06BA : FFE6;
  06BB : 0016;
  06BC : FFF4;
  06BD : FFE0;
  06BE : FFE2;
  06BF : 0013;
  06C0 : 000D;
  06C1 : FFEA;
  06C2 : FFF4;
  06C3 : FFF8;
  06C4 : 0000;
  06C5 : FFF8;
  06C6 : 0014;
  06C7 : FFFF;
  06C8 : FFFF;
  06C9 : 0017;
  06CA : 0004;
  06CB : 0002;
  06CC : 0009;
  06CD : FFFB;
  06CE : FFE5;
  06CF : FFED;
  06D0 : FFFF;
  06D1 : FFF6;
  06D2 : FFE7;
  06D3 : FFF8;
  06D4 : FFEE;
  06D5 : 000B;
  06D6 : 0004;
  06D7 : FFF4;
  06D8 : 0020;
  06D9 : FFF3;
  06DA : 000C;
  06DB : FFF5;
  06DC : 000A;
  06DD : 0018;
  06DE : 0009;
  06DF : FFFD;
  06E0 : FFEF;
  06E1 : 0004;
  06E2 : FFE9;
  06E3 : FFF5;
  06E4 : FFFC;
  06E5 : FFE7;
  06E6 : 0010;
  06E7 : 000C;
  06E8 : FFE9;
  06E9 : 000C;
  06EA : 0005;
  06EB : 0003;
  06EC : FFFA;
  06ED : 0001;
  06EE : 001E;
  06EF : FFF1;
  06F0 : 0021;
  06F1 : 0009;
  06F2 : FFEF;
  06F3 : 0011;
  06F4 : FFD9;
  06F5 : 0004;
  06F6 : 0022;
  06F7 : FFFA;
  06F8 : FFF0;
  06F9 : FFF0;
  06FA : 0001;
  06FB : FFFE;
  06FC : FFE8;
  06FD : 0009;
  06FE : FFF6;
  06FF : 0028;
  0700 : FFDE;
  0701 : 0013;
  0702 : 0012;
  0703 : FFF8;
  0704 : 0008;
  0705 : FFFD;
  0706 : FFE3;
  0707 : 0006;
  0708 : FFF5;
  0709 : FFE7;
  070A : FFE4;
  070B : 001E;
  070C : 0010;
  070D : FFF1;
  070E : FFF4;
  070F : 0012;
  0710 : FFF0;
  0711 : 0013;
  0712 : 0001;
  0713 : FFF4;
  0714 : 000A;
  0715 : FFE5;
  0716 : FFEC;
  0717 : FFF3;
  0718 : FFFE;
  0719 : 0019;
  071A : 0001;
  071B : 000C;
  071C : FFFD;
  071D : 001D;
  071E : 0004;
  071F : FFF5;
  0720 : 0015;
  0721 : FFF1;
  0722 : 000F;
  0723 : FFF3;
  0724 : FFED;
  0725 : 0008;
  0726 : 0007;
  0727 : FFF1;
  0728 : 001C;
  0729 : 002B;
  072A : FFEE;
  072B : 001E;
  072C : FFE7;
  072D : FFF1;
  072E : 0020;
  072F : FFE2;
  0730 : FFF6;
  0731 : FFFB;
  0732 : 000C;
  0733 : FFFF;
  0734 : FFE6;
  0735 : 000B;
  0736 : 001D;
  0737 : 000D;
  0738 : 0007;
  0739 : 0001;
  073A : FFEC;
  073B : FFEE;
  073C : 000A;
  073D : FFF7;
  073E : FFFD;
  073F : 000F;
  0740 : FFF1;
  0741 : FFEE;
  0742 : 0000;
  0743 : 0018;
  0744 : FFF6;
  0745 : FFE7;
  0746 : 0019;
  0747 : 0019;
  0748 : FFFD;
  0749 : 0003;
  074A : FFF9;
  074B : 0003;
  074C : 0000;
  074D : FFFD;
  074E : 001A;
  074F : 000D;
  0750 : FFFA;
  0751 : FFFC;
  0752 : FFFE;
  0753 : FFFF;
  0754 : FFEE;
  0755 : 0021;
  0756 : FFFB;
  0757 : 0001;
  0758 : FFEC;
  0759 : 0007;
  075A : 0003;
  075B : 002D;
  075C : 0017;
  075D : FFE4;
  075E : FFFA;
  075F : 0009;
  0760 : FFF5;
  0761 : FFF1;
  0762 : FFE0;
  0763 : 000A;
  0764 : 000B;
  0765 : FFFE;
  0766 : 0000;
  0767 : FFFD;
  0768 : FFF3;
  0769 : FFF9;
  076A : 0008;
  076B : FFFC;
  076C : FFF8;
  076D : FFF0;
  076E : 0001;
  076F : 000E;
  0770 : FFFD;
  0771 : FFD6;
  0772 : 0010;
  0773 : 0009;
  0774 : 0002;
  0775 : FFFE;
  0776 : FFEE;
  0777 : 0019;
  0778 : 0001;
  0779 : 0013;
  077A : FFFA;
  077B : 0013;
  077C : FFED;
  077D : FFE5;
  077E : FFEB;
  077F : FFF5;
  0780 : 0003;
  0781 : 0009;
  0782 : FFEC;
  0783 : FFFA;
  0784 : 0001;
  0785 : FFFC;
  0786 : 0012;
  0787 : 0005;
  0788 : 000F;
  0789 : 0004;
  078A : FFE4;
  078B : 002D;
  078C : FFF6;
  078D : 0013;
  078E : 0011;
  078F : FFFC;
  0790 : FFF1;
  0791 : 001E;
  0792 : FFFC;
  0793 : 0001;
  0794 : FFED;
  0795 : FFFF;
  0796 : 0001;
  0797 : 0004;
  0798 : 001D;
  0799 : 0002;
  079A : 0008;
  079B : FFF6;
  079C : 0004;
  079D : FFFF;
  079E : FFFA;
  079F : 000C;
  07A0 : 001B;
  07A1 : FFFC;
  07A2 : FFF8;
  07A3 : 0007;
  07A4 : FFF7;
  07A5 : FFF8;
  07A6 : FFD8;
  07A7 : 001E;
  07A8 : FFFD;
  07A9 : FFDE;
  07AA : FFFB;
  07AB : FFF6;
  07AC : FFE1;
  07AD : 0011;
  07AE : FFE1;
  07AF : FFDC;
  07B0 : 0010;
  07B1 : FFFF;
  07B2 : 0007;
  07B3 : FFF5;
  07B4 : FFF2;
  07B5 : 0002;
  07B6 : 0004;
  07B7 : 0019;
  07B8 : FFF0;
  07B9 : FFDF;
  07BA : FFF5;
  07BB : FFF2;
  07BC : FFED;
  07BD : 0009;
  07BE : FFF0;
  07BF : FFFF;
  07C0 : 0018;
  07C1 : 0010;
  07C2 : FFFF;
  07C3 : FFEB;
  07C4 : 0011;
  07C5 : 0012;
  07C6 : FFEC;
  07C7 : 000B;
  07C8 : 0006;
  07C9 : 0008;
  07CA : FFEC;
  07CB : 001C;
  07CC : 0016;
  07CD : 0013;
  07CE : 0003;
  07CF : 0004;
  07D0 : FFFE;
  07D1 : FFFB;
  07D2 : FFF4;
  07D3 : FFEB;
  07D4 : FFEB;
  07D5 : FFFE;
  07D6 : FFFC;
  07D7 : 0009;
  07D8 : FFEF;
  07D9 : 0013;
  07DA : 000E;
  07DB : 001D;
  07DC : 0009;
  07DD : 0003;
  07DE : 0016;
  07DF : FFF6;
  07E0 : 0008;
  07E1 : FFF7;
  07E2 : 000D;
  07E3 : FFF4;
  07E4 : FFF3;
  07E5 : FFFF;
  07E6 : FFEE;
  07E7 : 0001;
  07E8 : FFF9;
  07E9 : 0001;
  07EA : FFE9;
  07EB : 0016;
  07EC : 0003;
  07ED : FFF5;
  07EE : 0016;
  07EF : 000F;
  07F0 : FFF3;
  07F1 : 0010;
  07F2 : FFE6;
  07F3 : 000F;
  07F4 : FFE0;
  07F5 : 0005;
  07F6 : 0003;
  07F7 : FFE3;
  07F8 : 000B;
  07F9 : FFE1;
  07FA : 001D;
  07FB : 0007;
  07FC : 000D;
  07FD : FFF0;
  07FE : FFEE;
  07FF : FFFC;
  0800 : FFFE;
  0801 : 0001;
  0802 : FFFB;
  0803 : 000A;
  0804 : FFFC;
  0805 : FFFB;
  0806 : FFD4;
  0807 : 000F;
  0808 : 0003;
  0809 : FFE9;
  080A : FFFC;
  080B : 000B;
  080C : FFEF;
  080D : 0019;
  080E : FFFB;
  080F : FFEA;
  0810 : 000C;
  0811 : 0014;
  0812 : FFE0;
  0813 : 0000;
  0814 : 0006;
  0815 : FFE6;
  0816 : 000C;
  0817 : FFF1;
  0818 : FFF9;
  0819 : 000C;
  081A : FFF4;
  081B : 0017;
  081C : 0002;
  081D : 0006;
  081E : 0006;
  081F : 000B;
  0820 : FFF9;
  0821 : 0010;
  0822 : FFF6;
  0823 : FFE8;
  0824 : 0002;
  0825 : 000F;
  0826 : FFFC;
  0827 : FFFA;
  0828 : FFEA;
  0829 : 0013;
  082A : 0003;
  082B : FFF3;
  082C : FFE8;
  082D : 0010;
  082E : 0011;
  082F : FFF6;
  0830 : 0015;
  0831 : 000F;
  0832 : FFF5;
  0833 : FFE1;
  0834 : FFDD;
  0835 : 0008;
  0836 : FFE7;
  0837 : FFF7;
  0838 : 0004;
  0839 : FFF4;
  083A : 0005;
  083B : 0002;
  083C : 0015;
  083D : 001D;
  083E : 000B;
  083F : 000B;
  0840 : 001C;
  0841 : FFF5;
  0842 : FFE9;
  0843 : 0008;
  0844 : 0004;
  0845 : 000A;
  0846 : FFED;
  0847 : 0001;
  0848 : FFF3;
  0849 : FFFE;
  084A : FFDF;
  084B : 000A;
  084C : FFF4;
  084D : FFFD;
  084E : FFE0;
  084F : FFDC;
  0850 : FFFF;
  0851 : FFEB;
  0852 : 0002;
  0853 : 0009;
  0854 : FFE2;
  0855 : 0018;
  0856 : 0013;
  0857 : 0029;
  0858 : 001F;
  0859 : FFEA;
  085A : FFFE;
  085B : FFE5;
  085C : FFEB;
  085D : 000D;
  085E : 0003;
  085F : 0010;
  0860 : FFF1;
  0861 : FFF7;
  0862 : 0003;
  0863 : FFFE;
  0864 : 0009;
  0865 : FFF0;
  0866 : 0011;
  0867 : 0004;
  0868 : FFFD;
  0869 : 0005;
  086A : FFFD;
  086B : FFF8;
  086C : 0015;
  086D : FFFF;
  086E : 0000;
  086F : FFEA;
  0870 : FFEE;
  0871 : 0004;
  0872 : 001B;
  0873 : FFFC;
  0874 : FFF4;
  0875 : 0009;
  0876 : 0011;
  0877 : 0007;
  0878 : FFFB;
  0879 : 000A;
  087A : FFF5;
  087B : FFFA;
  087C : 0017;
  087D : FFFB;
  087E : FFFB;
  087F : FFE9;
  0880 : 0008;
  0881 : FFEA;
  0882 : 002B;
  0883 : 001B;
  0884 : 0000;
  0885 : FFD7;
  0886 : 0005;
  0887 : FFE5;
  0888 : FFDD;
  0889 : 000E;
  088A : 0010;
  088B : 0005;
  088C : FFFE;
  088D : 000B;
  088E : FFFC;
  088F : FFEC;
  0890 : FFF8;
  0891 : 0022;
  0892 : 0014;
  0893 : 001B;
  0894 : FFFF;
  0895 : FFE4;
  0896 : FFFE;
  0897 : 0001;
  0898 : FFDC;
  0899 : FFE8;
  089A : FFEC;
  089B : 000A;
  089C : FFEC;
  089D : 0004;
  089E : 000C;
  089F : 0006;
  08A0 : 0008;
  08A1 : 000B;
  08A2 : FFE3;
  08A3 : 0002;
  08A4 : FFF6;
  08A5 : 0029;
  08A6 : 0007;
  08A7 : FFF6;
  08A8 : 0010;
  08A9 : FFEA;
  08AA : 000E;
  08AB : 0020;
  08AC : 0004;
  08AD : 0005;
  08AE : 0027;
  08AF : FFF6;
  08B0 : FFF8;
  08B1 : FFF0;
  08B2 : 000B;
  08B3 : FFF9;
  08B4 : 0010;
  08B5 : 0016;
  08B6 : FFFC;
  08B7 : FFFD;
  08B8 : 000C;
  08B9 : 000E;
  08BA : FFD1;
  08BB : 0006;
  08BC : FFE6;
  08BD : FFFF;
  08BE : 0006;
  08BF : FFDF;
  08C0 : 0011;
  08C1 : FFE5;
  08C2 : FFF5;
  08C3 : 000A;
  08C4 : 0002;
  08C5 : FFF0;
  08C6 : FFF6;
  08C7 : FFFF;
  08C8 : 0007;
  08C9 : FFEB;
  08CA : 0017;
  08CB : 000B;
  08CC : FFE8;
  08CD : FFF6;
  08CE : FFF6;
  08CF : FFF1;
  08D0 : FFF1;
  08D1 : FFF0;
  08D2 : 001E;
  08D3 : FFFE;
  08D4 : 0009;
  08D5 : 0008;
  08D6 : FFD4;
  08D7 : 000D;
  08D8 : 0007;
  08D9 : 0014;
  08DA : FFF6;
  08DB : FFFB;
  08DC : 000A;
  08DD : FFE5;
  08DE : FFF7;
  08DF : 000E;
  08E0 : 0007;
  08E1 : 0020;
  08E2 : 0005;
  08E3 : 0005;
  08E4 : FFEB;
  08E5 : 000D;
  08E6 : 0012;
  08E7 : 0002;
  08E8 : 0003;
  08E9 : 0004;
  08EA : FFF4;
  08EB : 0012;
  08EC : 000D;
  08ED : 000F;
  08EE : FFF2;
  08EF : 0005;
  08F0 : FFE9;
  08F1 : FFFF;
  08F2 : FFD6;
  08F3 : 0004;
  08F4 : FFDB;
  08F5 : 0008;
  08F6 : 000E;
  08F7 : 0007;
  08F8 : FFEF;
  08F9 : 001B;
  08FA : FFFA;
  08FB : 0009;
  08FC : 0010;
  08FD : FFFA;
  08FE : FFEB;
  08FF : FFF9;
  0900 : 000E;
  0901 : 001A;
  0902 : 0016;
  0903 : 0016;
  0904 : FFE9;
  0905 : 000D;
  0906 : 0003;
  0907 : 0005;
  0908 : FFF6;
  0909 : FFF9;
  090A : FFF3;
  090B : 0002;
  090C : FFE9;
  090D : 0009;
  090E : 0004;
  090F : 000B;
  0910 : FFF5;
  0911 : 0022;
  0912 : 0025;
  0913 : FFF2;
  0914 : FFE2;
  0915 : FFF2;
  0916 : 000A;
  0917 : 000E;
  0918 : 0008;
  0919 : FFF9;
  091A : FFFB;
  091B : 001D;
  091C : 000F;
  091D : 0000;
  091E : 0010;
  091F : FFFB;
  0920 : FFFB;
  0921 : FFDA;
  0922 : 0001;
  0923 : 0002;
  0924 : FFDD;
  0925 : 0006;
  0926 : FFF8;
  0927 : FFF8;
  0928 : FFED;
  0929 : FFFD;
  092A : FFFB;
  092B : 0014;
  092C : FFEA;
  092D : FFDF;
  092E : FFE7;
  092F : FFF5;
  0930 : FFF2;
  0931 : 0000;
  0932 : 000D;
  0933 : 0015;
  0934 : FFF8;
  0935 : 0017;
  0936 : FFF9;
  0937 : 0013;
  0938 : FFF5;
  0939 : FFFE;
  093A : 0004;
  093B : FFED;
  093C : 0009;
  093D : FFFE;
  093E : 001B;
  093F : 000B;
  0940 : 0003;
  0941 : FFF3;
  0942 : 000F;
  0943 : 0012;
  0944 : FFF4;
  0945 : FFFF;
  0946 : FFFF;
  0947 : FFED;
  0948 : 0005;
  0949 : FFE9;
  094A : FFFC;
  094B : FFEF;
  094C : 0004;
  094D : 000A;
  094E : FFE7;
  094F : FFF3;
  0950 : 0019;
  0951 : FFEE;
  0952 : FFF8;
  0953 : FFEA;
  0954 : FFEF;
  0955 : FFFB;
  0956 : FFF3;
  0957 : FFEC;
  0958 : FFF0;
  0959 : 0002;
  095A : 0016;
  095B : FFF9;
  095C : 0009;
  095D : 000F;
  095E : 0008;
  095F : 0017;
  0960 : 0006;
  0961 : 0013;
  0962 : FFF6;
  0963 : FFF9;
  0964 : 0008;
  0965 : 0019;
  0966 : FFFB;
  0967 : FFEB;
  0968 : 0020;
  0969 : FFE9;
  096A : 0001;
  096B : FFFC;
  096C : FFEC;
  096D : 0002;
  096E : 0014;
  096F : FFFE;
  0970 : FFEE;
  0971 : 0007;
  0972 : 0001;
  0973 : 0018;
  0974 : FFFB;
  0975 : FFFF;
  0976 : FFE6;
  0977 : 0006;
  0978 : 000D;
  0979 : FFF7;
  097A : FFF4;
  097B : FFE7;
  097C : 000B;
  097D : FFF4;
  097E : FFEA;
  097F : 000F;
  0980 : FFEF;
  0981 : 0004;
  0982 : 000B;
  0983 : FFF9;
  0984 : FFEF;
  0985 : 0001;
  0986 : 0018;
  0987 : 0013;
  0988 : 000D;
  0989 : FFE5;
  098A : FFF2;
  098B : FFE6;
  098C : FFEE;
  098D : 0004;
  098E : 0008;
  098F : 0009;
  0990 : 0004;
  0991 : FFDD;
  0992 : 0020;
  0993 : 000D;
  0994 : 000D;
  0995 : 001F;
  0996 : FFEB;
  0997 : FFEB;
  0998 : 001B;
  0999 : FFE7;
  099A : FFF6;
  099B : 0013;
  099C : 0018;
  099D : 000B;
  099E : 0005;
  099F : FFF2;
  09A0 : FFF8;
  09A1 : 000F;
  09A2 : FFFB;
  09A3 : FFEF;
  09A4 : FFE9;
  09A5 : FFFC;
  09A6 : 0012;
  09A7 : 000B;
  09A8 : FFE9;
  09A9 : FFF5;
  09AA : FFD3;
  09AB : FFFF;
  09AC : FFED;
  09AD : FFEB;
  09AE : 0012;
  09AF : 000E;
  09B0 : 0000;
  09B1 : 0004;
  09B2 : FFF9;
  09B3 : 000D;
  09B4 : FFE6;
  09B5 : FFFB;
  09B6 : 0022;
  09B7 : 0008;
  09B8 : FFFC;
  09B9 : FFEC;
  09BA : 000C;
  09BB : FFFB;
  09BC : FFF5;
  09BD : FFF8;
  09BE : FFF2;
  09BF : FFF0;
  09C0 : FFE9;
  09C1 : 0017;
  09C2 : FFF3;
  09C3 : 0010;
  09C4 : 0011;
  09C5 : FFF5;
  09C6 : FFF1;
  09C7 : FFE7;
  09C8 : 000C;
  09C9 : 0019;
  09CA : FFF9;
  09CB : FFE7;
  09CC : 0005;
  09CD : 0005;
  09CE : FFF8;
  09CF : FFFB;
  09D0 : FFF0;
  09D1 : 0018;
  09D2 : FFFC;
  09D3 : FFF3;
  09D4 : 0022;
  09D5 : 000D;
  09D6 : 0032;
  09D7 : 0009;
  09D8 : FFF9;
  09D9 : FFFD;
  09DA : FFEA;
  09DB : FFF3;
  09DC : FFF6;
  09DD : FFFD;
  09DE : 0017;
  09DF : 001E;
  09E0 : FFF6;
  09E1 : 0004;
  09E2 : 0021;
  09E3 : 0016;
  09E4 : FFFA;
  09E5 : 000C;
  09E6 : FFE8;
  09E7 : FFEB;
  09E8 : 0013;
  09E9 : FFF0;
  09EA : 000B;
  09EB : FFFE;
  09EC : 0019;
  09ED : 0028;
  09EE : 0007;
  09EF : 000D;
  09F0 : FFEC;
  09F1 : FFFA;
  09F2 : FFEC;
  09F3 : 0013;
  09F4 : 0005;
  09F5 : 0019;
  09F6 : 0004;
  09F7 : FFF0;
  09F8 : 000C;
  09F9 : 0014;
  09FA : 000B;
  09FB : 001E;
  09FC : FFFC;
  09FD : 000E;
  09FE : FFF8;
  09FF : 0013;
  0A00 : FFE5;
  0A01 : 0003;
  0A02 : FFF6;
  0A03 : 0012;
  0A04 : FFD7;
  0A05 : FFE9;
  0A06 : 000D;
  0A07 : FFFA;
  0A08 : FFEA;
  0A09 : FFF6;
  0A0A : 000F;
  0A0B : 0003;
  0A0C : FFFC;
  0A0D : FFFF;
  0A0E : FFE4;
  0A0F : FFE6;
  0A10 : FFF4;
  0A11 : 0015;
  0A12 : 0013;
  0A13 : FFFF;
  0A14 : 0000;
  0A15 : FFF6;
  0A16 : 000F;
  0A17 : 0011;
  0A18 : FFF8;
  0A19 : FFF7;
  0A1A : FFE7;
  0A1B : 000F;
  0A1C : 000B;
  0A1D : FFF2;
  0A1E : 0010;
  0A1F : FFFA;
  0A20 : FFFB;
  0A21 : FFE7;
  0A22 : FFFD;
  0A23 : 0005;
  0A24 : FFF7;
  0A25 : 0002;
  0A26 : 0009;
  0A27 : FFED;
  0A28 : FFFB;
  0A29 : 0000;
  0A2A : 0002;
  0A2B : FFF0;
  0A2C : FFFE;
  0A2D : FFFB;
  0A2E : 0000;
  0A2F : 0005;
  0A30 : FFE2;
  0A31 : FFF9;
  0A32 : FFFE;
  0A33 : FFFB;
  0A34 : 0008;
  0A35 : FFFB;
  0A36 : 0005;
  0A37 : FFFB;
  0A38 : 0029;
  0A39 : 0010;
  0A3A : 0008;
  0A3B : FFE9;
  0A3C : FFF2;
  0A3D : 000A;
  0A3E : 0013;
  0A3F : FFF8;
  0A40 : FFFF;
  0A41 : 000B;
  0A42 : 0010;
  0A43 : FFEE;
  0A44 : FFD3;
  0A45 : 001C;
  0A46 : 0008;
  0A47 : FFF7;
  0A48 : 0005;
  0A49 : 0002;
  0A4A : FFEB;
  0A4B : 0006;
  0A4C : FFE8;
  0A4D : FFF6;
  0A4E : 0009;
  0A4F : FFFA;
  0A50 : 001B;
  0A51 : 000D;
  0A52 : FFF8;
  0A53 : FFFB;
  0A54 : FFE6;
  0A55 : FFF1;
  0A56 : 0028;
  0A57 : 0000;
  0A58 : 000A;
  0A59 : 0004;
  0A5A : FFEF;
  0A5B : FFF8;
  0A5C : FFF9;
  0A5D : 0004;
  0A5E : FFFD;
  0A5F : 0025;
  0A60 : FFE6;
  0A61 : 0000;
  0A62 : 0016;
  0A63 : 000D;
  0A64 : 0018;
  0A65 : 0008;
  0A66 : 0009;
  0A67 : 0001;
  0A68 : 001F;
  0A69 : FFEB;
  0A6A : 0008;
  0A6B : 001C;
  0A6C : 0012;
  0A6D : FFDC;
  0A6E : FFE6;
  0A6F : 000D;
  0A70 : 0006;
  0A71 : 0014;
  0A72 : 0018;
  0A73 : 0007;
  0A74 : 0012;
  0A75 : FFF6;
  0A76 : FFF2;
  0A77 : 0016;
  0A78 : FFE7;
  0A79 : FFFF;
  0A7A : FFF0;
  0A7B : FFE5;
  0A7C : 0016;
  0A7D : 0014;
  0A7E : FFEC;
  0A7F : 0001;
  0A80 : FFEC;
  0A81 : FFE4;
  0A82 : 0008;
  0A83 : FFEF;
  0A84 : FFEF;
  0A85 : FFFF;
  0A86 : 0018;
  0A87 : 000E;
  0A88 : 0011;
  0A89 : 0015;
  0A8A : FFF5;
  0A8B : 0001;
  0A8C : FFFB;
  0A8D : 001B;
  0A8E : FFEA;
  0A8F : FFF5;
  0A90 : 000E;
  0A91 : 0018;
  0A92 : FFE2;
  0A93 : FFED;
  0A94 : FFE1;
  0A95 : 001C;
  0A96 : 0013;
  0A97 : 001B;
  0A98 : FFEE;
  0A99 : FFFB;
  0A9A : FFF3;
  0A9B : FFF7;
  0A9C : 0007;
  0A9D : FFE9;
  0A9E : 0008;
  0A9F : 0007;
  0AA0 : 0000;
  0AA1 : 0002;
  0AA2 : 0014;
  0AA3 : 001D;
  0AA4 : 0004;
  0AA5 : FFD3;
  0AA6 : 0006;
  0AA7 : 000D;
  0AA8 : FFF4;
  0AA9 : FFF3;
  0AAA : 0011;
  0AAB : FFFA;
  0AAC : FFF9;
  0AAD : FFFB;
  0AAE : 0001;
  0AAF : 0004;
  0AB0 : 000D;
  0AB1 : 000B;
  0AB2 : FFED;
  0AB3 : 0002;
  0AB4 : 000B;
  0AB5 : FFF2;
  0AB6 : FFFB;
  0AB7 : FFF3;
  0AB8 : FFDA;
  0AB9 : FFEF;
  0ABA : FFFC;
  0ABB : 0006;
  0ABC : 0016;
  0ABD : FFF4;
  0ABE : FFFC;
  0ABF : FFF0;
  0AC0 : FFFE;
  0AC1 : 000C;
  0AC2 : 0017;
  0AC3 : FFFB;
  0AC4 : 0007;
  0AC5 : FFEC;
  0AC6 : FFEF;
  0AC7 : FFEE;
  0AC8 : FFF3;
  0AC9 : 000D;
  0ACA : FFE6;
  0ACB : 0015;
  0ACC : FFE3;
  0ACD : FFFB;
  0ACE : FFF5;
  0ACF : 0018;
  0AD0 : 0004;
  0AD1 : FFF4;
  0AD2 : FFF6;
  0AD3 : 0003;
  0AD4 : FFFC;
  0AD5 : 001C;
  0AD6 : FFE8;
  0AD7 : FFFD;
  0AD8 : 0016;
  0AD9 : FFE6;
  0ADA : FFF0;
  0ADB : 0002;
  0ADC : FFF4;
  0ADD : 0003;
  0ADE : FFFC;
  0ADF : 000B;
  0AE0 : FFDA;
  0AE1 : 0015;
  0AE2 : 0006;
  0AE3 : 0005;
  0AE4 : FFEA;
  0AE5 : 001E;
  0AE6 : FFFF;
  0AE7 : FFF0;
  0AE8 : FFFE;
  0AE9 : FFFE;
  0AEA : 0008;
  0AEB : FFDB;
  0AEC : FFEA;
  0AED : 0013;
  0AEE : FFF3;
  0AEF : 000E;
  0AF0 : 0019;
  0AF1 : 0003;
  0AF2 : FFE0;
  0AF3 : 000A;
  0AF4 : FFF8;
  0AF5 : 0007;
  0AF6 : 0014;
  0AF7 : 0004;
  0AF8 : FFFE;
  0AF9 : FFE5;
  0AFA : 0017;
  0AFB : FFED;
  0AFC : FFFB;
  0AFD : FFEA;
  0AFE : FFED;
  0AFF : FFFD;
  0B00 : 0004;
  0B01 : 0010;
  0B02 : 000A;
  0B03 : 0028;
  0B04 : FFFD;
  0B05 : 000C;
  0B06 : 000E;
  0B07 : 0013;
  0B08 : 0008;
  0B09 : FFFB;
  0B0A : FFFD;
  0B0B : 0006;
  0B0C : FFF2;
  0B0D : FFE5;
  0B0E : 0020;
  0B0F : FFED;
  0B10 : FFF7;
  0B11 : FFF2;
  0B12 : 0004;
  0B13 : 000E;
  0B14 : 0015;
  0B15 : 0008;
  0B16 : FFFE;
  0B17 : 0009;
  0B18 : FFE2;
  0B19 : FFF6;
  0B1A : FFFD;
  0B1B : 0023;
  0B1C : 0008;
  0B1D : 000B;
  0B1E : FFF0;
  0B1F : FFEC;
  0B20 : 0007;
  0B21 : 0007;
  0B22 : FFD3;
  0B23 : FFEA;
  0B24 : FFF9;
  0B25 : FFE9;
  0B26 : 000B;
  0B27 : FFFB;
  0B28 : FFEC;
  0B29 : 001C;
  0B2A : FFFD;
  0B2B : 0003;
  0B2C : FFFE;
  0B2D : FFF5;
  0B2E : FFF6;
  0B2F : 0002;
  0B30 : FFFE;
  0B31 : 0010;
  0B32 : FFDF;
  0B33 : 0001;
  0B34 : FFF7;
  0B35 : 0003;
  0B36 : 0020;
  0B37 : FFF6;
  0B38 : 000E;
  0B39 : FFED;
  0B3A : 000A;
  0B3B : FFF7;
  0B3C : FFE3;
  0B3D : FFD7;
  0B3E : FFF8;
  0B3F : 001C;
  0B40 : FFFD;
  0B41 : FFF7;
  0B42 : FFFE;
  0B43 : 0014;
  0B44 : FFF6;
  0B45 : FFF7;
  0B46 : 000F;
  0B47 : FFFA;
  0B48 : 0017;
  0B49 : FFF9;
  0B4A : FFD7;
  0B4B : FFF2;
  0B4C : 0006;
  0B4D : 0017;
  0B4E : 0000;
  0B4F : FFFB;
  0B50 : FFE3;
  0B51 : FFF7;
  0B52 : FFEB;
  0B53 : 0016;
  0B54 : FFFA;
  0B55 : 000C;
  0B56 : FFFB;
  0B57 : 0004;
  0B58 : 000E;
  0B59 : FFFC;
  0B5A : 000D;
  0B5B : 0000;
  0B5C : FFDF;
  0B5D : 000E;
  0B5E : 0017;
  0B5F : FFE9;
  0B60 : 0012;
  0B61 : 0023;
  0B62 : FFFD;
  0B63 : FFE6;
  0B64 : FFD1;
  0B65 : FFFE;
  0B66 : 000A;
  0B67 : 0013;
  0B68 : FFEA;
  0B69 : 0013;
  0B6A : FFFF;
  0B6B : 0009;
  0B6C : 0008;
  0B6D : FFF2;
  0B6E : 001E;
  0B6F : 0011;
  0B70 : 0018;
  0B71 : 0004;
  0B72 : FFFC;
  0B73 : FFFC;
  0B74 : 001C;
  0B75 : FFF4;
  0B76 : 000E;
  0B77 : FFF4;
  0B78 : 0002;
  0B79 : 001C;
  0B7A : FFE6;
  0B7B : 0005;
  0B7C : FFE1;
  0B7D : 0009;
  0B7E : FFED;
  0B7F : 0018;
  0B80 : 000C;
  0B81 : FFF9;
  0B82 : 000A;
  0B83 : FFE5;
  0B84 : 0004;
  0B85 : FFFA;
  0B86 : 0008;
  0B87 : 000B;
  0B88 : 002C;
  0B89 : 0018;
  0B8A : 0014;
  0B8B : 0002;
  0B8C : 0003;
  0B8D : FFEF;
  0B8E : FFEF;
  0B8F : FFFE;
  0B90 : FFEC;
  0B91 : 0004;
  0B92 : 000B;
  0B93 : FFFE;
  0B94 : FFF1;
  0B95 : FFF8;
  0B96 : FFFE;
  0B97 : FFF0;
  0B98 : 0002;
  0B99 : FFF1;
  0B9A : FFFF;
  0B9B : 0009;
  0B9C : 0006;
  0B9D : 001C;
  0B9E : FFE6;
  0B9F : FFF0;
  0BA0 : FFE9;
  0BA1 : FFF7;
  0BA2 : FFEE;
  0BA3 : FFE6;
  0BA4 : 0002;
  0BA5 : 000D;
  0BA6 : 0000;
  0BA7 : 0008;
  0BA8 : 000D;
  0BA9 : FFF5;
  0BAA : 0006;
  0BAB : FFFE;
  0BAC : 000D;
  0BAD : FFF5;
  0BAE : 0025;
  0BAF : 0011;
  0BB0 : FFF9;
  0BB1 : 0002;
  0BB2 : FFEA;
  0BB3 : FFE5;
  0BB4 : FFED;
  0BB5 : 0009;
  0BB6 : 0003;
  0BB7 : FFF9;
  0BB8 : 0010;
  0BB9 : FFE2;
  0BBA : FFEA;
  0BBB : FFEF;
  0BBC : 000E;
  0BBD : 000B;
  0BBE : 000B;
  0BBF : 0003;
  0BC0 : 0017;
  0BC1 : FFF8;
  0BC2 : 0001;
  0BC3 : 0021;
  0BC4 : FFF1;
  0BC5 : FFFB;
  0BC6 : FFEB;
  0BC7 : 0010;
  0BC8 : FFFF;
  0BC9 : FFF4;
  0BCA : 0008;
  0BCB : FFF9;
  0BCC : 0007;
  0BCD : 000D;
  0BCE : FFEA;
  0BCF : FFEB;
  0BD0 : FFF6;
  0BD1 : FFEB;
  0BD2 : 001A;
  0BD3 : FFFF;
  0BD4 : FFFA;
  0BD5 : 0004;
  0BD6 : FFF5;
  0BD7 : FFF3;
  0BD8 : FFFA;
  0BD9 : FFE5;
  0BDA : FFF9;
  0BDB : FFF4;
  0BDC : 0017;
  0BDD : FFF2;
  0BDE : 0001;
  0BDF : FFF0;
  0BE0 : 0001;
  0BE1 : 0021;
  0BE2 : 000A;
  0BE3 : 000E;
  0BE4 : FFED;
  0BE5 : 0007;
  0BE6 : 000A;
  0BE7 : 0019;
  0BE8 : 0014;
  0BE9 : FFEE;
  0BEA : FFF3;
  0BEB : FFF0;
  0BEC : FFF5;
  0BED : FFF3;
  0BEE : FFEE;
  0BEF : 0012;
  0BF0 : 0011;
  0BF1 : 0009;
  0BF2 : FFF6;
  0BF3 : FFED;
  0BF4 : FFF6;
  0BF5 : FFEB;
  0BF6 : 0005;
  0BF7 : FFEF;
  0BF8 : FFF1;
  0BF9 : FFF5;
  0BFA : 000C;
  0BFB : FFFD;
  0BFC : FFF4;
  0BFD : 0009;
  0BFE : FFFB;
  0BFF : FFEC;
END;
