-- linear2_weight
-- Original shape: (8, 16)
DEPTH = 128;
WIDTH = 16;
ADDRESS_RADIX = HEX;
DATA_RADIX = HEX;
CONTENT BEGIN
  0000 : 0047;
  0001 : 0056;
  0002 : FFCE;
  0003 : 0032;
  0004 : FFC3;
  0005 : 0027;
  0006 : 005D;
  0007 : FFDB;
  0008 : 005D;
  0009 : FFFC;
  000A : FFE2;
  000B : 0024;
  000C : 0020;
  000D : 0000;
  000E : 0062;
  000F : FF9A;
  0010 : FFEF;
  0011 : 0002;
  0012 : 003B;
  0013 : 0027;
  0014 : 004A;
  0015 : 0024;
  0016 : 0014;
  0017 : 0060;
  0018 : 0008;
  0019 : FFAE;
  001A : 0026;
  001B : 0029;
  001C : FFF3;
  001D : FFAA;
  001E : FFD6;
  001F : 004A;
  0020 : 0009;
  0021 : 0051;
  0022 : 0008;
  0023 : 0028;
  0024 : FFC9;
  0025 : FFCD;
  0026 : 0033;
  0027 : FFFB;
  0028 : 004F;
  0029 : 0050;
  002A : 0048;
  002B : FFD2;
  002C : FFB4;
  002D : 0032;
  002E : 0039;
  002F : FFA7;
  0030 : FF73;
  0031 : 0001;
  0032 : FFF9;
  0033 : 006E;
  0034 : FFA4;
  0035 : FFE6;
  0036 : FFEC;
  0037 : FFE3;
  0038 : FF7E;
  0039 : 0016;
  003A : 0046;
  003B : FFF4;
  003C : FFD2;
  003D : 003E;
  003E : FF84;
  003F : FFC9;
  0040 : FFAB;
  0041 : 0057;
  0042 : 0003;
  0043 : 0044;
  0044 : FFDC;
  0045 : FF9A;
  0046 : 0007;
  0047 : 0053;
  0048 : 0049;
  0049 : 001E;
  004A : FFD2;
  004B : 0067;
  004C : 003C;
  004D : 001A;
  004E : 0017;
  004F : FFF7;
  0050 : 004A;
  0051 : 0027;
  0052 : 007E;
  0053 : 0032;
  0054 : FFF9;
  0055 : FF8D;
  0056 : 0029;
  0057 : 0040;
  0058 : FFD2;
  0059 : FFFC;
  005A : FFDC;
  005B : FFAD;
  005C : FF90;
  005D : 0010;
  005E : 0040;
  005F : 0042;
  0060 : FFCF;
  0061 : 000A;
  0062 : 004E;
  0063 : 0024;
  0064 : 000D;
  0065 : FFCE;
  0066 : 0045;
  0067 : FFAD;
  0068 : 000A;
  0069 : 004A;
  006A : 0066;
  006B : FFB7;
  006C : FFCA;
  006D : 0020;
  006E : 0013;
  006F : FFEF;
  0070 : 0021;
  0071 : FFDC;
  0072 : FFF6;
  0073 : FFB8;
  0074 : 0046;
  0075 : FFD6;
  0076 : FFBC;
  0077 : FFA8;
  0078 : FFCB;
  0079 : 000B;
  007A : 000F;
  007B : FFE0;
  007C : 0030;
  007D : FFF5;
  007E : 002B;
  007F : 0067;
END;
