-- linear0_weight
-- Original shape: (64, 128)
DEPTH = 8192;
WIDTH = 16;
ADDRESS_RADIX = HEX;
DATA_RADIX = HEX;
CONTENT BEGIN
  0000 : 0017;
  0001 : 0014;
  0002 : FFF8;
  0003 : FFEE;
  0004 : FFFE;
  0005 : 0011;
  0006 : FFF9;
  0007 : FFED;
  0008 : FFFE;
  0009 : 0014;
  000A : FFF3;
  000B : 000D;
  000C : 0003;
  000D : FFF4;
  000E : 0011;
  000F : FFEE;
  0010 : 0007;
  0011 : FFF5;
  0012 : 0000;
  0013 : 0005;
  0014 : FFF4;
  0015 : 000A;
  0016 : 0006;
  0017 : 0018;
  0018 : FFEF;
  0019 : 0008;
  001A : 000A;
  001B : FFF5;
  001C : 0013;
  001D : FFF3;
  001E : FFF9;
  001F : 0003;
  0020 : 000B;
  0021 : 0002;
  0022 : FFF2;
  0023 : 000D;
  0024 : 000C;
  0025 : FFF3;
  0026 : FFFC;
  0027 : FFFD;
  0028 : 0001;
  0029 : FFFE;
  002A : FFF6;
  002B : FFE2;
  002C : 0008;
  002D : FFEB;
  002E : FFED;
  002F : FFF7;
  0030 : FFF9;
  0031 : FFED;
  0032 : FFEA;
  0033 : FFF7;
  0034 : FFF3;
  0035 : 0000;
  0036 : FFF7;
  0037 : FFFB;
  0038 : FFF5;
  0039 : FFEA;
  003A : FFE9;
  003B : 000B;
  003C : FFE7;
  003D : FFEA;
  003E : 0010;
  003F : 000D;
  0040 : 0003;
  0041 : 0007;
  0042 : 0015;
  0043 : 000B;
  0044 : 0003;
  0045 : FFF0;
  0046 : 0014;
  0047 : 000C;
  0048 : 000B;
  0049 : FFF4;
  004A : 0017;
  004B : FFF8;
  004C : 000E;
  004D : 0018;
  004E : 0014;
  004F : 0017;
  0050 : 0018;
  0051 : 0011;
  0052 : 0020;
  0053 : FFFA;
  0054 : 0003;
  0055 : 0001;
  0056 : 0000;
  0057 : FFFD;
  0058 : 0018;
  0059 : 001C;
  005A : 001B;
  005B : 000A;
  005C : 0009;
  005D : FFF4;
  005E : 0011;
  005F : 0004;
  0060 : FFF2;
  0061 : 000D;
  0062 : 0000;
  0063 : FFED;
  0064 : FFF8;
  0065 : 0004;
  0066 : FFFD;
  0067 : 0009;
  0068 : 0000;
  0069 : 0000;
  006A : 0000;
  006B : FFF9;
  006C : FFEA;
  006D : FFEA;
  006E : FFEB;
  006F : 000C;
  0070 : 0008;
  0071 : 000C;
  0072 : FFFA;
  0073 : FFE8;
  0074 : 0001;
  0075 : FFFE;
  0076 : FFF0;
  0077 : 000A;
  0078 : FFFA;
  0079 : 0011;
  007A : 0005;
  007B : FFF0;
  007C : 0015;
  007D : FFFF;
  007E : FFEB;
  007F : FFF1;
  0080 : 001C;
  0081 : 0013;
  0082 : 0018;
  0083 : 001A;
  0084 : 0000;
  0085 : 0010;
  0086 : 0013;
  0087 : 0010;
  0088 : FFF8;
  0089 : FFFE;
  008A : 0011;
  008B : 0014;
  008C : 0007;
  008D : 0003;
  008E : 0018;
  008F : FFF2;
  0090 : 0017;
  0091 : 000D;
  0092 : FFF2;
  0093 : 000C;
  0094 : FFFC;
  0095 : 0013;
  0096 : 000D;
  0097 : FFFF;
  0098 : FFFF;
  0099 : 0002;
  009A : FFF6;
  009B : 0000;
  009C : FFF1;
  009D : FFF3;
  009E : FFF0;
  009F : 0017;
  00A0 : FFF6;
  00A1 : FFEF;
  00A2 : FFED;
  00A3 : FFF1;
  00A4 : FFF4;
  00A5 : FFEE;
  00A6 : 0006;
  00A7 : 0013;
  00A8 : FFF1;
  00A9 : 0013;
  00AA : FFFD;
  00AB : FFEB;
  00AC : FFF0;
  00AD : FFE8;
  00AE : 000B;
  00AF : FFEC;
  00B0 : FFF0;
  00B1 : FFFB;
  00B2 : FFE7;
  00B3 : 0014;
  00B4 : 0012;
  00B5 : FFF4;
  00B6 : 0005;
  00B7 : 0017;
  00B8 : 0002;
  00B9 : FFFF;
  00BA : 000B;
  00BB : FFF2;
  00BC : FFF8;
  00BD : FFEA;
  00BE : FFF5;
  00BF : FFF8;
  00C0 : FFF4;
  00C1 : FFFA;
  00C2 : 001D;
  00C3 : 001B;
  00C4 : FFF0;
  00C5 : FFF4;
  00C6 : 0006;
  00C7 : 0018;
  00C8 : 000E;
  00C9 : FFEF;
  00CA : 0005;
  00CB : FFDE;
  00CC : FFDD;
  00CD : FFF4;
  00CE : FFFE;
  00CF : FFEC;
  00D0 : FFE9;
  00D1 : FFEB;
  00D2 : 0002;
  00D3 : 0008;
  00D4 : 0007;
  00D5 : 0007;
  00D6 : 0006;
  00D7 : 000E;
  00D8 : 0003;
  00D9 : 000B;
  00DA : 0013;
  00DB : FFF8;
  00DC : FFFD;
  00DD : 000C;
  00DE : 0003;
  00DF : 0017;
  00E0 : 0003;
  00E1 : 000E;
  00E2 : FFFA;
  00E3 : FFF0;
  00E4 : FFF5;
  00E5 : FFF7;
  00E6 : 0007;
  00E7 : 0011;
  00E8 : 000B;
  00E9 : FFF5;
  00EA : FFF0;
  00EB : FFF3;
  00EC : 0009;
  00ED : FFF2;
  00EE : 0002;
  00EF : 000E;
  00F0 : 000D;
  00F1 : 000D;
  00F2 : 000A;
  00F3 : 000F;
  00F4 : 0007;
  00F5 : 0019;
  00F6 : 000D;
  00F7 : 000E;
  00F8 : FFFB;
  00F9 : FFFB;
  00FA : FFFA;
  00FB : 0015;
  00FC : FFFB;
  00FD : 001B;
  00FE : 0014;
  00FF : 000B;
  0100 : 0000;
  0101 : FFFF;
  0102 : FFE5;
  0103 : FFF0;
  0104 : 0006;
  0105 : 0002;
  0106 : FFDE;
  0107 : FFDD;
  0108 : FFE8;
  0109 : FFED;
  010A : FFFE;
  010B : FFF3;
  010C : FFFB;
  010D : FFFB;
  010E : FFFC;
  010F : FFFD;
  0110 : FFF3;
  0111 : 000F;
  0112 : 0002;
  0113 : 0011;
  0114 : FFF1;
  0115 : FFFA;
  0116 : 0011;
  0117 : FFF2;
  0118 : 0017;
  0119 : FFFA;
  011A : FFFC;
  011B : FFF6;
  011C : FFF6;
  011D : 0000;
  011E : FFFE;
  011F : FFE7;
  0120 : 000E;
  0121 : FFFA;
  0122 : FFF9;
  0123 : FFF8;
  0124 : 0008;
  0125 : FFFE;
  0126 : FFF3;
  0127 : 000E;
  0128 : FFF3;
  0129 : FFEC;
  012A : FFEF;
  012B : 001A;
  012C : 0003;
  012D : 0006;
  012E : FFF4;
  012F : 0004;
  0130 : 0006;
  0131 : 0011;
  0132 : FFFE;
  0133 : FFFE;
  0134 : 0016;
  0135 : 0019;
  0136 : 000E;
  0137 : 0004;
  0138 : FFFE;
  0139 : 0003;
  013A : 0007;
  013B : FFEF;
  013C : FFF3;
  013D : 0016;
  013E : 0000;
  013F : FFEC;
  0140 : 0006;
  0141 : FFFA;
  0142 : 0009;
  0143 : 0010;
  0144 : 0004;
  0145 : 001A;
  0146 : 0011;
  0147 : 0015;
  0148 : 0012;
  0149 : 0009;
  014A : 0012;
  014B : 0011;
  014C : 0002;
  014D : 0012;
  014E : 000C;
  014F : 000C;
  0150 : FFF4;
  0151 : 000E;
  0152 : FFF9;
  0153 : 000A;
  0154 : FFF1;
  0155 : FFED;
  0156 : 000C;
  0157 : FFFD;
  0158 : 0018;
  0159 : FFFD;
  015A : 001C;
  015B : 000F;
  015C : 0012;
  015D : 0011;
  015E : FFF9;
  015F : FFFF;
  0160 : FFFE;
  0161 : FFF8;
  0162 : 0017;
  0163 : 0006;
  0164 : 0006;
  0165 : FFE8;
  0166 : FFFF;
  0167 : FFE7;
  0168 : FFE8;
  0169 : FFFC;
  016A : FFFA;
  016B : 000E;
  016C : 0009;
  016D : FFF4;
  016E : FFF5;
  016F : FFF0;
  0170 : FFEB;
  0171 : 000C;
  0172 : FFE8;
  0173 : 0008;
  0174 : 0011;
  0175 : FFEC;
  0176 : FFFB;
  0177 : 000E;
  0178 : FFE6;
  0179 : 0001;
  017A : 000A;
  017B : FFFD;
  017C : FFF7;
  017D : FFF1;
  017E : 000C;
  017F : 0003;
  0180 : FFF7;
  0181 : 0006;
  0182 : 0017;
  0183 : FFFC;
  0184 : FFFE;
  0185 : FFF1;
  0186 : FFFE;
  0187 : 0008;
  0188 : FFFE;
  0189 : FFF1;
  018A : FFEC;
  018B : 0001;
  018C : 000B;
  018D : FFEC;
  018E : 0002;
  018F : FFFE;
  0190 : 000F;
  0191 : 000D;
  0192 : FFF3;
  0193 : FFF4;
  0194 : 000F;
  0195 : FFEA;
  0196 : 0016;
  0197 : FFFF;
  0198 : 0002;
  0199 : 0004;
  019A : 0005;
  019B : 0000;
  019C : FFF7;
  019D : FFFA;
  019E : FFF7;
  019F : FFF0;
  01A0 : 0016;
  01A1 : 0006;
  01A2 : FFF0;
  01A3 : FFFB;
  01A4 : 0018;
  01A5 : FFFB;
  01A6 : FFF6;
  01A7 : 001F;
  01A8 : FFF7;
  01A9 : 0008;
  01AA : 0004;
  01AB : 0010;
  01AC : 001D;
  01AD : 0008;
  01AE : 0024;
  01AF : 0023;
  01B0 : 001A;
  01B1 : FFF4;
  01B2 : 0019;
  01B3 : FFF7;
  01B4 : 000E;
  01B5 : 0003;
  01B6 : FFFB;
  01B7 : 0006;
  01B8 : FFFE;
  01B9 : FFF7;
  01BA : 0005;
  01BB : 0006;
  01BC : FFFE;
  01BD : FFFB;
  01BE : 0009;
  01BF : 0003;
  01C0 : 0002;
  01C1 : FFF0;
  01C2 : 000F;
  01C3 : 0014;
  01C4 : 0007;
  01C5 : 000B;
  01C6 : FFF1;
  01C7 : 0010;
  01C8 : 0013;
  01C9 : FFED;
  01CA : 0008;
  01CB : FFF0;
  01CC : FFE8;
  01CD : FFF9;
  01CE : FFFA;
  01CF : FFE7;
  01D0 : FFE6;
  01D1 : FFE9;
  01D2 : FFE1;
  01D3 : 0001;
  01D4 : FFF6;
  01D5 : FFDF;
  01D6 : FFFB;
  01D7 : FFF5;
  01D8 : FFF9;
  01D9 : FFF6;
  01DA : FFE6;
  01DB : 000F;
  01DC : FFFB;
  01DD : FFFC;
  01DE : FFF8;
  01DF : FFEC;
  01E0 : FFF1;
  01E1 : FFF4;
  01E2 : FFF0;
  01E3 : 000C;
  01E4 : 0002;
  01E5 : 0011;
  01E6 : FFF0;
  01E7 : FFF8;
  01E8 : 0007;
  01E9 : FFEC;
  01EA : 000C;
  01EB : 000A;
  01EC : 000B;
  01ED : FFFD;
  01EE : FFFC;
  01EF : 0009;
  01F0 : 0006;
  01F1 : FFF6;
  01F2 : 000A;
  01F3 : 000C;
  01F4 : 0002;
  01F5 : FFEF;
  01F6 : 0005;
  01F7 : 0007;
  01F8 : FFF6;
  01F9 : FFF4;
  01FA : 0005;
  01FB : 001A;
  01FC : 0016;
  01FD : 0010;
  01FE : 001D;
  01FF : 001A;
  0200 : 0002;
  0201 : 000F;
  0202 : 0017;
  0203 : 0014;
  0204 : 0017;
  0205 : FFEF;
  0206 : FFF2;
  0207 : 0019;
  0208 : FFEF;
  0209 : 0018;
  020A : 001C;
  020B : FFFE;
  020C : 000E;
  020D : 001C;
  020E : 000A;
  020F : 001A;
  0210 : 000D;
  0211 : FFFA;
  0212 : 0004;
  0213 : 0003;
  0214 : 0017;
  0215 : 000E;
  0216 : FFF9;
  0217 : 000C;
  0218 : 0012;
  0219 : FFEF;
  021A : 0000;
  021B : FFFB;
  021C : FFFD;
  021D : 0013;
  021E : FFF5;
  021F : 000C;
  0220 : 0006;
  0221 : FFE4;
  0222 : FFFE;
  0223 : FFE2;
  0224 : FFFD;
  0225 : FFF7;
  0226 : 0007;
  0227 : 0000;
  0228 : 0006;
  0229 : 0001;
  022A : FFE3;
  022B : FFF8;
  022C : FFE7;
  022D : FFE9;
  022E : FFEC;
  022F : 0011;
  0230 : 000F;
  0231 : 0009;
  0232 : 0008;
  0233 : FFF0;
  0234 : 000A;
  0235 : FFF6;
  0236 : FFFA;
  0237 : FFEF;
  0238 : FFF9;
  0239 : 0013;
  023A : FFF6;
  023B : 000D;
  023C : FFEC;
  023D : FFEF;
  023E : FFFD;
  023F : 0008;
  0240 : 0009;
  0241 : FFFB;
  0242 : FFFC;
  0243 : FFFE;
  0244 : FFF9;
  0245 : FFF4;
  0246 : FFF2;
  0247 : FFEF;
  0248 : FFEA;
  0249 : FFF8;
  024A : FFF7;
  024B : FFF3;
  024C : FFF4;
  024D : 000E;
  024E : FFFF;
  024F : 0004;
  0250 : 0001;
  0251 : FFF6;
  0252 : 0004;
  0253 : 0013;
  0254 : 0001;
  0255 : 0002;
  0256 : FFFC;
  0257 : 000B;
  0258 : FFFC;
  0259 : 000A;
  025A : FFEF;
  025B : 0005;
  025C : FFEC;
  025D : FFEE;
  025E : 000C;
  025F : FFFC;
  0260 : 000E;
  0261 : 0013;
  0262 : 0005;
  0263 : FFEF;
  0264 : 0006;
  0265 : 0010;
  0266 : FFFF;
  0267 : FFF1;
  0268 : FFFA;
  0269 : 0017;
  026A : FFF9;
  026B : 000B;
  026C : 0016;
  026D : 0009;
  026E : FFFD;
  026F : 000F;
  0270 : 0010;
  0271 : FFF1;
  0272 : 0016;
  0273 : FFFD;
  0274 : FFFF;
  0275 : FFFB;
  0276 : FFF9;
  0277 : 0004;
  0278 : 0016;
  0279 : 0001;
  027A : 000F;
  027B : 000E;
  027C : FFFF;
  027D : 0011;
  027E : 001B;
  027F : 0008;
  0280 : 0017;
  0281 : FFEF;
  0282 : 0007;
  0283 : FFFA;
  0284 : 0002;
  0285 : FFF7;
  0286 : FFF6;
  0287 : 0016;
  0288 : 000B;
  0289 : FFF1;
  028A : 000F;
  028B : FFE9;
  028C : FFE9;
  028D : FFEA;
  028E : FFE9;
  028F : 000F;
  0290 : 0005;
  0291 : 000B;
  0292 : FFEF;
  0293 : FFEF;
  0294 : 0006;
  0295 : 0006;
  0296 : 0002;
  0297 : FFEF;
  0298 : 0006;
  0299 : FFE0;
  029A : 0009;
  029B : FFF7;
  029C : 000F;
  029D : FFE7;
  029E : FFF6;
  029F : FFEE;
  02A0 : 0015;
  02A1 : 0004;
  02A2 : 000C;
  02A3 : FFF0;
  02A4 : 0012;
  02A5 : 001F;
  02A6 : FFF6;
  02A7 : 001E;
  02A8 : 0008;
  02A9 : 0022;
  02AA : FFF9;
  02AB : FFFB;
  02AC : 0018;
  02AD : 000A;
  02AE : 0017;
  02AF : 0007;
  02B0 : FFFE;
  02B1 : 0015;
  02B2 : 000B;
  02B3 : 0003;
  02B4 : FFFA;
  02B5 : 0010;
  02B6 : FFF5;
  02B7 : 0004;
  02B8 : FFFD;
  02B9 : 0009;
  02BA : 0005;
  02BB : 000F;
  02BC : 0008;
  02BD : FFEC;
  02BE : 0004;
  02BF : 0014;
  02C0 : 000F;
  02C1 : 0010;
  02C2 : FFFF;
  02C3 : 000A;
  02C4 : 0010;
  02C5 : 0004;
  02C6 : FFFE;
  02C7 : FFFD;
  02C8 : FFF4;
  02C9 : 000F;
  02CA : 0007;
  02CB : FFF8;
  02CC : FFF7;
  02CD : 0007;
  02CE : 000A;
  02CF : FFF8;
  02D0 : FFF6;
  02D1 : 0004;
  02D2 : FFF1;
  02D3 : 0009;
  02D4 : 0016;
  02D5 : 0018;
  02D6 : 000C;
  02D7 : 0029;
  02D8 : 0006;
  02D9 : 001A;
  02DA : FFFA;
  02DB : 0018;
  02DC : 000F;
  02DD : 001E;
  02DE : FFFD;
  02DF : FFFC;
  02E0 : 0011;
  02E1 : 0006;
  02E2 : 0020;
  02E3 : 000D;
  02E4 : 0022;
  02E5 : 0005;
  02E6 : 0008;
  02E7 : 000C;
  02E8 : 0011;
  02E9 : 001D;
  02EA : 0022;
  02EB : 000E;
  02EC : 0014;
  02ED : 000C;
  02EE : 0012;
  02EF : 0007;
  02F0 : 0010;
  02F1 : 0003;
  02F2 : 0011;
  02F3 : 000E;
  02F4 : 000D;
  02F5 : 0000;
  02F6 : 0009;
  02F7 : 0007;
  02F8 : 0011;
  02F9 : FFF3;
  02FA : 000A;
  02FB : 0009;
  02FC : FFFE;
  02FD : FFF5;
  02FE : FFFA;
  02FF : 0010;
  0300 : 0018;
  0301 : 0017;
  0302 : FFF1;
  0303 : FFF3;
  0304 : 000B;
  0305 : FFF3;
  0306 : 0010;
  0307 : 000C;
  0308 : FFED;
  0309 : FFFA;
  030A : 0001;
  030B : 0008;
  030C : 0013;
  030D : FFF9;
  030E : FFF9;
  030F : 0014;
  0310 : 0007;
  0311 : 0005;
  0312 : 0013;
  0313 : FFFB;
  0314 : FFEE;
  0315 : FFF2;
  0316 : 0007;
  0317 : 0012;
  0318 : 000F;
  0319 : 0006;
  031A : FFF3;
  031B : 0016;
  031C : 0020;
  031D : 001F;
  031E : FFF6;
  031F : 0007;
  0320 : 0023;
  0321 : 0011;
  0322 : 001A;
  0323 : 0014;
  0324 : FFFD;
  0325 : FFF7;
  0326 : 0004;
  0327 : 0001;
  0328 : 0018;
  0329 : FFF2;
  032A : 0010;
  032B : 000D;
  032C : 000B;
  032D : FFFB;
  032E : 0008;
  032F : 000A;
  0330 : 0011;
  0331 : 0014;
  0332 : FFEF;
  0333 : 0005;
  0334 : FFF6;
  0335 : FFEC;
  0336 : FFF0;
  0337 : FFEE;
  0338 : 0010;
  0339 : 000F;
  033A : 000E;
  033B : FFEA;
  033C : FFF7;
  033D : FFFA;
  033E : 0004;
  033F : FFED;
  0340 : 000B;
  0341 : FFF2;
  0342 : FFF7;
  0343 : FFF9;
  0344 : FFF4;
  0345 : 000F;
  0346 : 0011;
  0347 : 0001;
  0348 : FFF5;
  0349 : FFE1;
  034A : FFF5;
  034B : FFEC;
  034C : FFFB;
  034D : FFE6;
  034E : FFFD;
  034F : FFEA;
  0350 : FFEB;
  0351 : FFEE;
  0352 : 000D;
  0353 : FFF1;
  0354 : FFF4;
  0355 : 0004;
  0356 : 000E;
  0357 : FFFA;
  0358 : FFFE;
  0359 : 000B;
  035A : 0019;
  035B : 0006;
  035C : 0003;
  035D : FFFB;
  035E : FFF0;
  035F : FFEA;
  0360 : 0005;
  0361 : 000D;
  0362 : FFF7;
  0363 : FFFF;
  0364 : FFF4;
  0365 : 0012;
  0366 : FFF5;
  0367 : 0005;
  0368 : FFFF;
  0369 : 000C;
  036A : FFEF;
  036B : 0002;
  036C : FFFB;
  036D : FFF4;
  036E : 0007;
  036F : 0003;
  0370 : 0019;
  0371 : 0014;
  0372 : 001A;
  0373 : FFF1;
  0374 : FFF7;
  0375 : FFF8;
  0376 : 0000;
  0377 : 0015;
  0378 : FFFF;
  0379 : 0004;
  037A : 0019;
  037B : 001C;
  037C : 0007;
  037D : 000B;
  037E : 0002;
  037F : 001D;
  0380 : 0013;
  0381 : 0001;
  0382 : FFFA;
  0383 : 0015;
  0384 : 0015;
  0385 : 0010;
  0386 : 000E;
  0387 : 0004;
  0388 : 0006;
  0389 : 0016;
  038A : 0012;
  038B : 000C;
  038C : FFFC;
  038D : 0022;
  038E : 0009;
  038F : 0009;
  0390 : 000E;
  0391 : 000F;
  0392 : 0008;
  0393 : FFF5;
  0394 : 0008;
  0395 : 0003;
  0396 : 000B;
  0397 : FFF0;
  0398 : FFF2;
  0399 : FFEF;
  039A : 000A;
  039B : FFF4;
  039C : 000B;
  039D : FFF5;
  039E : 001C;
  039F : 0007;
  03A0 : 0013;
  03A1 : 0015;
  03A2 : 0007;
  03A3 : 0004;
  03A4 : 0006;
  03A5 : 000A;
  03A6 : 0012;
  03A7 : 000B;
  03A8 : 0002;
  03A9 : 0002;
  03AA : 0019;
  03AB : 0014;
  03AC : 000D;
  03AD : FFF6;
  03AE : 0016;
  03AF : 0003;
  03B0 : FFEE;
  03B1 : 0008;
  03B2 : 0001;
  03B3 : 000D;
  03B4 : FFFA;
  03B5 : FFF0;
  03B6 : 0016;
  03B7 : 0000;
  03B8 : FFFA;
  03B9 : 0008;
  03BA : FFF9;
  03BB : FFFB;
  03BC : FFF3;
  03BD : FFE8;
  03BE : FFFA;
  03BF : FFF7;
  03C0 : FFF7;
  03C1 : FFE3;
  03C2 : FFE3;
  03C3 : FFF0;
  03C4 : FFFD;
  03C5 : FFE5;
  03C6 : FFF0;
  03C7 : 000A;
  03C8 : 000B;
  03C9 : 0018;
  03CA : FFF8;
  03CB : 000C;
  03CC : 0001;
  03CD : 0009;
  03CE : 0000;
  03CF : 0002;
  03D0 : 0003;
  03D1 : FFFB;
  03D2 : 0001;
  03D3 : 0008;
  03D4 : FFEF;
  03D5 : 0011;
  03D6 : FFF0;
  03D7 : FFFA;
  03D8 : FFF5;
  03D9 : FFF0;
  03DA : 0007;
  03DB : FFF2;
  03DC : 0001;
  03DD : FFEC;
  03DE : 000B;
  03DF : FFEA;
  03E0 : 0011;
  03E1 : FFF4;
  03E2 : 0003;
  03E3 : 0004;
  03E4 : 0010;
  03E5 : FFF4;
  03E6 : 0000;
  03E7 : 0006;
  03E8 : FFFA;
  03E9 : FFE2;
  03EA : 0007;
  03EB : FFE3;
  03EC : 0000;
  03ED : FFFC;
  03EE : 0002;
  03EF : FFFD;
  03F0 : 0000;
  03F1 : FFEC;
  03F2 : FFF1;
  03F3 : FFF9;
  03F4 : FFE5;
  03F5 : FFF5;
  03F6 : 0000;
  03F7 : FFE6;
  03F8 : FFF2;
  03F9 : FFF0;
  03FA : 000E;
  03FB : FFF3;
  03FC : 000F;
  03FD : FFF6;
  03FE : FFED;
  03FF : FFF3;
  0400 : 0008;
  0401 : 000F;
  0402 : FFEB;
  0403 : 0004;
  0404 : FFFD;
  0405 : 0017;
  0406 : 0003;
  0407 : FFF1;
  0408 : 0004;
  0409 : 000A;
  040A : FFF9;
  040B : FFFF;
  040C : FFF0;
  040D : FFF6;
  040E : FFED;
  040F : FFFC;
  0410 : 0008;
  0411 : FFFE;
  0412 : 000F;
  0413 : FFEA;
  0414 : FFE3;
  0415 : FFF0;
  0416 : FFEF;
  0417 : FFE9;
  0418 : 0004;
  0419 : FFE5;
  041A : FFFB;
  041B : 0008;
  041C : 000A;
  041D : FFED;
  041E : FFF5;
  041F : 0009;
  0420 : 0008;
  0421 : 0007;
  0422 : 0011;
  0423 : FFFF;
  0424 : FFEE;
  0425 : 0007;
  0426 : 0015;
  0427 : FFEE;
  0428 : 0009;
  0429 : FFF3;
  042A : 0012;
  042B : FFFA;
  042C : 0006;
  042D : 0004;
  042E : 0001;
  042F : 001B;
  0430 : 000D;
  0431 : 0013;
  0432 : 0014;
  0433 : 001F;
  0434 : 0019;
  0435 : 0011;
  0436 : 0016;
  0437 : FFFE;
  0438 : 0003;
  0439 : 0014;
  043A : 0015;
  043B : 0003;
  043C : FFF8;
  043D : FFE9;
  043E : FFFA;
  043F : 000B;
  0440 : 000F;
  0441 : FFFE;
  0442 : FFF6;
  0443 : FFF9;
  0444 : 0008;
  0445 : FFE4;
  0446 : 000B;
  0447 : FFF7;
  0448 : 0001;
  0449 : FFF0;
  044A : 0009;
  044B : 0018;
  044C : 0015;
  044D : 0008;
  044E : 000A;
  044F : 0015;
  0450 : 0010;
  0451 : 0002;
  0452 : FFF2;
  0453 : FFF0;
  0454 : FFF1;
  0455 : FFE9;
  0456 : FFE6;
  0457 : FFF3;
  0458 : 0001;
  0459 : FFFF;
  045A : 000B;
  045B : 0006;
  045C : 000D;
  045D : FFFC;
  045E : 0011;
  045F : FFFB;
  0460 : 0000;
  0461 : FFFF;
  0462 : 0005;
  0463 : 0006;
  0464 : 0010;
  0465 : FFF2;
  0466 : FFFF;
  0467 : FFED;
  0468 : 001A;
  0469 : FFF8;
  046A : 0000;
  046B : 0014;
  046C : 0015;
  046D : 000C;
  046E : FFED;
  046F : FFF3;
  0470 : FFF5;
  0471 : 0003;
  0472 : 0005;
  0473 : 0005;
  0474 : FFF5;
  0475 : 0011;
  0476 : 000D;
  0477 : 0000;
  0478 : FFFF;
  0479 : FFF8;
  047A : FFE8;
  047B : FFEA;
  047C : FFFE;
  047D : FFF7;
  047E : FFEA;
  047F : FFE2;
  0480 : FFFD;
  0481 : FFF9;
  0482 : 000C;
  0483 : FFF6;
  0484 : FFED;
  0485 : 0002;
  0486 : FFF6;
  0487 : 0007;
  0488 : 000A;
  0489 : FFEB;
  048A : FFFB;
  048B : 0000;
  048C : 000B;
  048D : FFFA;
  048E : 000A;
  048F : 0008;
  0490 : FFFA;
  0491 : 0001;
  0492 : FFF6;
  0493 : 0010;
  0494 : FFFB;
  0495 : 000A;
  0496 : 0004;
  0497 : 0008;
  0498 : 000F;
  0499 : 0017;
  049A : FFF9;
  049B : 001B;
  049C : FFF1;
  049D : FFF4;
  049E : FFF2;
  049F : 0004;
  04A0 : 000A;
  04A1 : 0001;
  04A2 : 000D;
  04A3 : FFFF;
  04A4 : FFF5;
  04A5 : FFF3;
  04A6 : 0018;
  04A7 : 0011;
  04A8 : 001A;
  04A9 : FFFB;
  04AA : FFF6;
  04AB : 001D;
  04AC : 0017;
  04AD : 0014;
  04AE : 0019;
  04AF : 000C;
  04B0 : 000B;
  04B1 : 0013;
  04B2 : FFFE;
  04B3 : FFF4;
  04B4 : FFFB;
  04B5 : 000A;
  04B6 : 0003;
  04B7 : FFF5;
  04B8 : FFF1;
  04B9 : 0013;
  04BA : FFEB;
  04BB : FFFE;
  04BC : 0011;
  04BD : FFEE;
  04BE : FFF3;
  04BF : 0010;
  04C0 : FFF4;
  04C1 : 0016;
  04C2 : 000E;
  04C3 : 0007;
  04C4 : 0006;
  04C5 : 0000;
  04C6 : FFF5;
  04C7 : 0012;
  04C8 : 000A;
  04C9 : 000F;
  04CA : FFF3;
  04CB : FFF1;
  04CC : FFED;
  04CD : 0004;
  04CE : FFE7;
  04CF : FFEE;
  04D0 : FFE8;
  04D1 : FFFC;
  04D2 : FFE8;
  04D3 : FFED;
  04D4 : FFFE;
  04D5 : 0001;
  04D6 : FFD7;
  04D7 : FFDE;
  04D8 : FFF4;
  04D9 : 0005;
  04DA : FFEA;
  04DB : 000A;
  04DC : FFFC;
  04DD : FFF4;
  04DE : FFF4;
  04DF : FFEC;
  04E0 : FFFE;
  04E1 : 0004;
  04E2 : 0008;
  04E3 : 0010;
  04E4 : FFF2;
  04E5 : FFEE;
  04E6 : 0009;
  04E7 : 0011;
  04E8 : FFF1;
  04E9 : FFF3;
  04EA : 0009;
  04EB : FFF7;
  04EC : 0005;
  04ED : 0006;
  04EE : 000E;
  04EF : FFFD;
  04F0 : FFF8;
  04F1 : FFF7;
  04F2 : FFED;
  04F3 : 0008;
  04F4 : FFF1;
  04F5 : 0011;
  04F6 : 0012;
  04F7 : FFF3;
  04F8 : 001A;
  04F9 : 0018;
  04FA : FFFF;
  04FB : 001C;
  04FC : FFF8;
  04FD : FFFF;
  04FE : 0015;
  04FF : 0009;
  0500 : 000D;
  0501 : FFF0;
  0502 : FFEF;
  0503 : FFFA;
  0504 : FFFC;
  0505 : 0012;
  0506 : 0004;
  0507 : FFF3;
  0508 : FFEE;
  0509 : 0006;
  050A : FFF4;
  050B : 0014;
  050C : 0010;
  050D : FFEF;
  050E : FFFA;
  050F : FFFF;
  0510 : FFF0;
  0511 : 0001;
  0512 : 0009;
  0513 : FFFE;
  0514 : 000B;
  0515 : 000B;
  0516 : FFEF;
  0517 : FFF5;
  0518 : 0003;
  0519 : FFF1;
  051A : FFFD;
  051B : FFEA;
  051C : 0001;
  051D : 000B;
  051E : FFFA;
  051F : 0002;
  0520 : 000E;
  0521 : 0008;
  0522 : FFF6;
  0523 : 000C;
  0524 : 0000;
  0525 : 0003;
  0526 : 000E;
  0527 : FFF1;
  0528 : 0008;
  0529 : 0006;
  052A : FFF4;
  052B : 0010;
  052C : FFEE;
  052D : FFFD;
  052E : 0011;
  052F : 000D;
  0530 : 000F;
  0531 : 000A;
  0532 : FFED;
  0533 : 0010;
  0534 : FFF0;
  0535 : FFEB;
  0536 : FFE8;
  0537 : FFE0;
  0538 : FFDB;
  0539 : 0003;
  053A : FFDC;
  053B : 0002;
  053C : FFEF;
  053D : FFE6;
  053E : FFFE;
  053F : 000B;
  0540 : 000D;
  0541 : FFF2;
  0542 : 0006;
  0543 : FFEC;
  0544 : FFEC;
  0545 : FFED;
  0546 : 0014;
  0547 : 0004;
  0548 : FFF8;
  0549 : 0004;
  054A : FFE7;
  054B : FFFE;
  054C : FFDB;
  054D : FFFE;
  054E : FFED;
  054F : FFDE;
  0550 : 000B;
  0551 : FFFA;
  0552 : FFF8;
  0553 : 0007;
  0554 : 0000;
  0555 : 0011;
  0556 : 0015;
  0557 : 000C;
  0558 : FFF4;
  0559 : 0019;
  055A : FFFA;
  055B : 0015;
  055C : 0007;
  055D : 0002;
  055E : FFF9;
  055F : 0007;
  0560 : 0005;
  0561 : FFEF;
  0562 : 000A;
  0563 : 0001;
  0564 : 0006;
  0565 : FFFE;
  0566 : 0000;
  0567 : FFF6;
  0568 : FFFB;
  0569 : 000D;
  056A : FFEE;
  056B : 0011;
  056C : FFFE;
  056D : 0014;
  056E : 0010;
  056F : 0013;
  0570 : FFF1;
  0571 : 0011;
  0572 : 0001;
  0573 : FFF5;
  0574 : FFEF;
  0575 : 0007;
  0576 : FFF5;
  0577 : 0013;
  0578 : FFF2;
  0579 : 0016;
  057A : FFFE;
  057B : FFF0;
  057C : 000C;
  057D : FFFA;
  057E : 0015;
  057F : FFEC;
  0580 : 000F;
  0581 : 000E;
  0582 : 0013;
  0583 : FFF8;
  0584 : FFF5;
  0585 : 0014;
  0586 : 000C;
  0587 : 0008;
  0588 : FFEF;
  0589 : 000F;
  058A : 0007;
  058B : FFFE;
  058C : FFED;
  058D : 0000;
  058E : FFF2;
  058F : FFED;
  0590 : 0006;
  0591 : FFFE;
  0592 : 0010;
  0593 : FFEE;
  0594 : 000D;
  0595 : FFFD;
  0596 : 0012;
  0597 : FFFB;
  0598 : FFFC;
  0599 : 0004;
  059A : FFF2;
  059B : FFF2;
  059C : 0015;
  059D : 000F;
  059E : 0003;
  059F : 0000;
  05A0 : FFFF;
  05A1 : 0013;
  05A2 : 0002;
  05A3 : 0007;
  05A4 : 000E;
  05A5 : FFFC;
  05A6 : FFFC;
  05A7 : FFF9;
  05A8 : FFEF;
  05A9 : 000E;
  05AA : 0001;
  05AB : FFFA;
  05AC : FFFD;
  05AD : 000B;
  05AE : 0008;
  05AF : FFFC;
  05B0 : FFFB;
  05B1 : FFF7;
  05B2 : 0001;
  05B3 : FFFB;
  05B4 : FFF0;
  05B5 : 0019;
  05B6 : 0001;
  05B7 : 0003;
  05B8 : FFFD;
  05B9 : FFF8;
  05BA : 000B;
  05BB : FFEF;
  05BC : 0009;
  05BD : FFE8;
  05BE : 0008;
  05BF : FFF6;
  05C0 : FFE0;
  05C1 : 0002;
  05C2 : FFF4;
  05C3 : 0010;
  05C4 : FFEB;
  05C5 : 0008;
  05C6 : 0005;
  05C7 : 0004;
  05C8 : FFFA;
  05C9 : FFE5;
  05CA : FFDF;
  05CB : FFDF;
  05CC : FFFD;
  05CD : FFE3;
  05CE : FFDD;
  05CF : 0003;
  05D0 : FFF2;
  05D1 : FFF2;
  05D2 : 0009;
  05D3 : FFE8;
  05D4 : 000E;
  05D5 : 0001;
  05D6 : FFF0;
  05D7 : 000A;
  05D8 : FFEF;
  05D9 : FFFA;
  05DA : 0001;
  05DB : FFF7;
  05DC : FFED;
  05DD : FFED;
  05DE : 0000;
  05DF : 000C;
  05E0 : FFEB;
  05E1 : 0011;
  05E2 : 0005;
  05E3 : 0007;
  05E4 : 000B;
  05E5 : FFFE;
  05E6 : FFEF;
  05E7 : 0015;
  05E8 : 000E;
  05E9 : 0008;
  05EA : 0008;
  05EB : 0005;
  05EC : 0011;
  05ED : 000C;
  05EE : FFF4;
  05EF : FFF9;
  05F0 : 000F;
  05F1 : FFF9;
  05F2 : FFFC;
  05F3 : 0010;
  05F4 : FFFC;
  05F5 : FFF2;
  05F6 : 0019;
  05F7 : 001F;
  05F8 : 000C;
  05F9 : 0000;
  05FA : 0018;
  05FB : 000A;
  05FC : 001D;
  05FD : 0009;
  05FE : 000E;
  05FF : 0010;
  0600 : FFE5;
  0601 : 000C;
  0602 : FFEE;
  0603 : FFEB;
  0604 : 0007;
  0605 : 0003;
  0606 : 0003;
  0607 : FFEB;
  0608 : FFE7;
  0609 : FFFC;
  060A : FFE2;
  060B : 0003;
  060C : FFF1;
  060D : FFF6;
  060E : FFF3;
  060F : FFEA;
  0610 : FFEC;
  0611 : FFFE;
  0612 : FFF8;
  0613 : FFF4;
  0614 : 0003;
  0615 : FFEF;
  0616 : FFF2;
  0617 : FFF1;
  0618 : FFF2;
  0619 : 0013;
  061A : 0012;
  061B : 0015;
  061C : FFF2;
  061D : FFF6;
  061E : FFEB;
  061F : 0005;
  0620 : FFE8;
  0621 : 0014;
  0622 : 000E;
  0623 : 000A;
  0624 : FFEA;
  0625 : 0016;
  0626 : 0002;
  0627 : FFF6;
  0628 : 0010;
  0629 : 0015;
  062A : FFF9;
  062B : FFF4;
  062C : FFF2;
  062D : 000E;
  062E : 000E;
  062F : FFFB;
  0630 : 000A;
  0631 : 0002;
  0632 : 001D;
  0633 : 0000;
  0634 : 001D;
  0635 : 001C;
  0636 : FFFF;
  0637 : 0012;
  0638 : 000E;
  0639 : 0007;
  063A : FFFB;
  063B : 0005;
  063C : FFFE;
  063D : FFEB;
  063E : FFF8;
  063F : FFF4;
  0640 : FFF3;
  0641 : 0008;
  0642 : FFF5;
  0643 : FFFF;
  0644 : 0013;
  0645 : 000D;
  0646 : 0011;
  0647 : 000E;
  0648 : 0017;
  0649 : 001F;
  064A : 0004;
  064B : FFF6;
  064C : 0006;
  064D : 0004;
  064E : FFF7;
  064F : 0011;
  0650 : FFF9;
  0651 : 0002;
  0652 : 0017;
  0653 : FFFE;
  0654 : 0017;
  0655 : 0019;
  0656 : FFFF;
  0657 : FFFD;
  0658 : 0016;
  0659 : 000D;
  065A : 0015;
  065B : 0011;
  065C : 000E;
  065D : FFF8;
  065E : 0008;
  065F : 0007;
  0660 : 000C;
  0661 : 0007;
  0662 : 0004;
  0663 : FFEC;
  0664 : 0014;
  0665 : FFFF;
  0666 : FFEB;
  0667 : FFED;
  0668 : 0001;
  0669 : 0007;
  066A : 000B;
  066B : FFE6;
  066C : FFE7;
  066D : FFFB;
  066E : 0010;
  066F : FFE9;
  0670 : FFFC;
  0671 : FFE8;
  0672 : FFED;
  0673 : 0001;
  0674 : FFED;
  0675 : FFF9;
  0676 : FFFF;
  0677 : 000F;
  0678 : FFF4;
  0679 : 0013;
  067A : 0005;
  067B : 0003;
  067C : 000F;
  067D : FFEF;
  067E : FFFC;
  067F : FFEB;
  0680 : 000D;
  0681 : FFF2;
  0682 : 0002;
  0683 : 000A;
  0684 : 000A;
  0685 : FFF3;
  0686 : FFEB;
  0687 : 0003;
  0688 : FFF1;
  0689 : FFEE;
  068A : FFF7;
  068B : FFFD;
  068C : 0002;
  068D : 0010;
  068E : 0012;
  068F : FFFC;
  0690 : FFE6;
  0691 : FFFF;
  0692 : 0005;
  0693 : 0006;
  0694 : 0001;
  0695 : FFED;
  0696 : FFFC;
  0697 : 0000;
  0698 : FFFD;
  0699 : FFFA;
  069A : 0010;
  069B : FFEF;
  069C : FFF4;
  069D : FFF5;
  069E : 0013;
  069F : FFF8;
  06A0 : 0006;
  06A1 : FFF9;
  06A2 : FFEF;
  06A3 : FFEF;
  06A4 : FFEC;
  06A5 : FFF8;
  06A6 : 000E;
  06A7 : FFE8;
  06A8 : FFF5;
  06A9 : 0001;
  06AA : 0000;
  06AB : 0002;
  06AC : FFF3;
  06AD : FFFF;
  06AE : 0010;
  06AF : FFFE;
  06B0 : 000D;
  06B1 : 0012;
  06B2 : FFFC;
  06B3 : 0019;
  06B4 : 000A;
  06B5 : 0002;
  06B6 : FFFC;
  06B7 : FFEF;
  06B8 : FFEE;
  06B9 : 0010;
  06BA : FFFB;
  06BB : 0003;
  06BC : 0000;
  06BD : 0006;
  06BE : FFED;
  06BF : 0003;
  06C0 : FFF9;
  06C1 : FFF4;
  06C2 : FFEA;
  06C3 : FFEF;
  06C4 : FFFF;
  06C5 : FFE8;
  06C6 : FFFC;
  06C7 : FFFA;
  06C8 : 0003;
  06C9 : FFF9;
  06CA : FFFA;
  06CB : 0002;
  06CC : FFEB;
  06CD : FFFD;
  06CE : 0006;
  06CF : 0009;
  06D0 : FFF5;
  06D1 : FFF2;
  06D2 : FFF3;
  06D3 : 0006;
  06D4 : FFE2;
  06D5 : 0008;
  06D6 : FFEC;
  06D7 : FFF5;
  06D8 : FFF7;
  06D9 : 0007;
  06DA : FFF0;
  06DB : FFEC;
  06DC : FFE9;
  06DD : FFE3;
  06DE : 000F;
  06DF : FFEF;
  06E0 : FFF3;
  06E1 : FFFF;
  06E2 : 0007;
  06E3 : FFEC;
  06E4 : FFFE;
  06E5 : FFF5;
  06E6 : FFFD;
  06E7 : FFEA;
  06E8 : 0001;
  06E9 : FFE6;
  06EA : FFEE;
  06EB : FFFB;
  06EC : FFF3;
  06ED : 0002;
  06EE : FFFD;
  06EF : FFF9;
  06F0 : 0001;
  06F1 : FFEB;
  06F2 : 0002;
  06F3 : 0002;
  06F4 : FFF5;
  06F5 : 000B;
  06F6 : FFEA;
  06F7 : FFE6;
  06F8 : FFE4;
  06F9 : 0006;
  06FA : 0006;
  06FB : FFF7;
  06FC : FFF8;
  06FD : 000C;
  06FE : FFF4;
  06FF : 000F;
  0700 : 000E;
  0701 : 000E;
  0702 : FFFD;
  0703 : 0009;
  0704 : FFFD;
  0705 : 000A;
  0706 : 0006;
  0707 : FFF5;
  0708 : 0008;
  0709 : FFF0;
  070A : FFFC;
  070B : 0009;
  070C : FFF9;
  070D : 000A;
  070E : FFEE;
  070F : 000C;
  0710 : FFFF;
  0711 : 0013;
  0712 : 0005;
  0713 : 000F;
  0714 : FFF5;
  0715 : 0000;
  0716 : FFFA;
  0717 : 0010;
  0718 : FFF8;
  0719 : 0014;
  071A : 0001;
  071B : 0007;
  071C : FFF4;
  071D : 0004;
  071E : FFFC;
  071F : 000B;
  0720 : FFE4;
  0721 : 0009;
  0722 : FFF6;
  0723 : FFF7;
  0724 : 0007;
  0725 : 0006;
  0726 : FFED;
  0727 : 0002;
  0728 : FFF5;
  0729 : FFF3;
  072A : FFEB;
  072B : FFE4;
  072C : 0006;
  072D : FFEA;
  072E : FFE6;
  072F : FFFA;
  0730 : FFFD;
  0731 : FFED;
  0732 : 0004;
  0733 : FFF2;
  0734 : 000F;
  0735 : 000C;
  0736 : 0001;
  0737 : 0007;
  0738 : 0007;
  0739 : 000F;
  073A : 0014;
  073B : 0009;
  073C : FFFA;
  073D : 0001;
  073E : 000B;
  073F : 0014;
  0740 : 0005;
  0741 : FFFD;
  0742 : 0003;
  0743 : FFF0;
  0744 : FFEE;
  0745 : FFF0;
  0746 : 0010;
  0747 : 0004;
  0748 : FFFE;
  0749 : 000D;
  074A : FFF8;
  074B : 0018;
  074C : 0006;
  074D : FFF7;
  074E : 000B;
  074F : 0012;
  0750 : 000A;
  0751 : 0009;
  0752 : 000E;
  0753 : 0008;
  0754 : FFFB;
  0755 : 0006;
  0756 : 001D;
  0757 : 0009;
  0758 : FFFD;
  0759 : FFF6;
  075A : 001B;
  075B : 0006;
  075C : 0017;
  075D : 0017;
  075E : 0005;
  075F : 000F;
  0760 : FFF2;
  0761 : 0008;
  0762 : 0012;
  0763 : 000A;
  0764 : 0010;
  0765 : FFEB;
  0766 : 0007;
  0767 : 0004;
  0768 : FFE7;
  0769 : FFEA;
  076A : FFE5;
  076B : 0010;
  076C : 0000;
  076D : FFF8;
  076E : 000B;
  076F : 000F;
  0770 : FFEC;
  0771 : 0004;
  0772 : FFED;
  0773 : 0000;
  0774 : FFE5;
  0775 : FFFD;
  0776 : 000B;
  0777 : FFEF;
  0778 : FFE2;
  0779 : 0003;
  077A : FFFD;
  077B : FFF5;
  077C : FFDB;
  077D : FFE4;
  077E : FFDB;
  077F : FFF0;
  0780 : 0006;
  0781 : 001D;
  0782 : FFFB;
  0783 : 000C;
  0784 : 000A;
  0785 : 0015;
  0786 : FFFA;
  0787 : 0004;
  0788 : FFFC;
  0789 : 0003;
  078A : 0003;
  078B : 0002;
  078C : FFFD;
  078D : 0006;
  078E : 000E;
  078F : 0011;
  0790 : 000C;
  0791 : 000E;
  0792 : 001C;
  0793 : FFFD;
  0794 : FFF9;
  0795 : 0019;
  0796 : 0012;
  0797 : FFFE;
  0798 : 0017;
  0799 : 0007;
  079A : FFFB;
  079B : FFFE;
  079C : 0015;
  079D : 000B;
  079E : 000D;
  079F : 0003;
  07A0 : 0017;
  07A1 : FFF9;
  07A2 : 0017;
  07A3 : 0012;
  07A4 : FFF6;
  07A5 : 0003;
  07A6 : FFEC;
  07A7 : FFEB;
  07A8 : FFEE;
  07A9 : FFF0;
  07AA : FFFB;
  07AB : 0015;
  07AC : FFFD;
  07AD : 0008;
  07AE : 0004;
  07AF : 0017;
  07B0 : 0005;
  07B1 : FFEC;
  07B2 : FFFF;
  07B3 : FFF3;
  07B4 : FFF3;
  07B5 : FFF0;
  07B6 : FFDF;
  07B7 : FFF6;
  07B8 : FFDF;
  07B9 : FFEF;
  07BA : FFF2;
  07BB : FFF6;
  07BC : FFF5;
  07BD : FFF2;
  07BE : 0017;
  07BF : 001B;
  07C0 : FFFC;
  07C1 : 0002;
  07C2 : FFF6;
  07C3 : FFF9;
  07C4 : 0012;
  07C5 : 0014;
  07C6 : 0019;
  07C7 : 0006;
  07C8 : 0003;
  07C9 : 0004;
  07CA : FFEE;
  07CB : FFE9;
  07CC : FFEA;
  07CD : 0001;
  07CE : FFF7;
  07CF : FFE9;
  07D0 : FFEB;
  07D1 : FFFE;
  07D2 : FFFC;
  07D3 : FFEE;
  07D4 : 0000;
  07D5 : FFF2;
  07D6 : FFF2;
  07D7 : FFEC;
  07D8 : 000D;
  07D9 : FFEE;
  07DA : 0006;
  07DB : 000F;
  07DC : FFE9;
  07DD : FFF5;
  07DE : FFFB;
  07DF : FFF1;
  07E0 : 000F;
  07E1 : 0000;
  07E2 : FFF3;
  07E3 : 000A;
  07E4 : 001D;
  07E5 : 0002;
  07E6 : FFF6;
  07E7 : 001B;
  07E8 : FFFF;
  07E9 : FFF8;
  07EA : 000C;
  07EB : 0006;
  07EC : 001A;
  07ED : 0003;
  07EE : FFF0;
  07EF : 0015;
  07F0 : 0013;
  07F1 : FFFD;
  07F2 : FFF5;
  07F3 : FFED;
  07F4 : 0006;
  07F5 : 0002;
  07F6 : 000F;
  07F7 : FFF3;
  07F8 : 0006;
  07F9 : FFFD;
  07FA : FFEB;
  07FB : FFE9;
  07FC : 0001;
  07FD : 0004;
  07FE : FFFA;
  07FF : FFEE;
  0800 : FFFB;
  0801 : FFF1;
  0802 : FFF5;
  0803 : 0003;
  0804 : FFF1;
  0805 : FFFC;
  0806 : FFF9;
  0807 : FFF4;
  0808 : FFF4;
  0809 : FFEB;
  080A : FFF8;
  080B : 0007;
  080C : FFE3;
  080D : FFF0;
  080E : 0008;
  080F : FFE4;
  0810 : FFF4;
  0811 : 0007;
  0812 : FFF4;
  0813 : FFEF;
  0814 : FFF8;
  0815 : 000C;
  0816 : FFFC;
  0817 : FFFC;
  0818 : 000D;
  0819 : FFED;
  081A : FFF1;
  081B : FFEF;
  081C : FFF9;
  081D : 0001;
  081E : 0007;
  081F : 0019;
  0820 : FFFE;
  0821 : 000A;
  0822 : 0006;
  0823 : 0000;
  0824 : 0008;
  0825 : FFFD;
  0826 : 0007;
  0827 : 000A;
  0828 : 0012;
  0829 : 000E;
  082A : 001A;
  082B : 000C;
  082C : FFF3;
  082D : 0004;
  082E : FFFA;
  082F : FFFB;
  0830 : 0009;
  0831 : FFFD;
  0832 : 0005;
  0833 : FFE6;
  0834 : 0001;
  0835 : 000A;
  0836 : FFF1;
  0837 : FFEE;
  0838 : FFFA;
  0839 : 0012;
  083A : 000E;
  083B : 000A;
  083C : FFEE;
  083D : 0007;
  083E : FFE8;
  083F : 0002;
  0840 : FFEB;
  0841 : FFEB;
  0842 : FFF7;
  0843 : 0001;
  0844 : FFF4;
  0845 : FFED;
  0846 : FFEF;
  0847 : 0002;
  0848 : 000A;
  0849 : 0017;
  084A : 0016;
  084B : 0010;
  084C : FFFD;
  084D : 000A;
  084E : 0008;
  084F : 0012;
  0850 : FFF3;
  0851 : FFFB;
  0852 : 000A;
  0853 : 0005;
  0854 : FFFA;
  0855 : FFFF;
  0856 : FFE1;
  0857 : 0005;
  0858 : FFFB;
  0859 : FFF6;
  085A : FFE5;
  085B : FFEF;
  085C : FFF8;
  085D : FFEE;
  085E : FFFF;
  085F : FFFD;
  0860 : FFF3;
  0861 : 0007;
  0862 : FFFA;
  0863 : FFF7;
  0864 : 0007;
  0865 : 0004;
  0866 : FFF2;
  0867 : FFF8;
  0868 : FFEC;
  0869 : 0015;
  086A : 0004;
  086B : 0013;
  086C : 000A;
  086D : 0001;
  086E : 0018;
  086F : FFF5;
  0870 : FFFE;
  0871 : FFFD;
  0872 : 0004;
  0873 : 0000;
  0874 : 0017;
  0875 : 0004;
  0876 : FFF0;
  0877 : 0015;
  0878 : 000B;
  0879 : 001C;
  087A : 0001;
  087B : 0011;
  087C : FFFD;
  087D : 000E;
  087E : 0003;
  087F : 0011;
  0880 : 0016;
  0881 : 000A;
  0882 : 001D;
  0883 : FFF6;
  0884 : 0009;
  0885 : FFFC;
  0886 : FFFD;
  0887 : FFF7;
  0888 : 0019;
  0889 : 0012;
  088A : FFFE;
  088B : FFF9;
  088C : 0014;
  088D : 0009;
  088E : FFF1;
  088F : 001C;
  0890 : FFFE;
  0891 : 0007;
  0892 : 000F;
  0893 : FFF5;
  0894 : 0006;
  0895 : 0013;
  0896 : 000E;
  0897 : FFF6;
  0898 : 0009;
  0899 : FFF2;
  089A : 001A;
  089B : FFFC;
  089C : 0009;
  089D : 000B;
  089E : 0007;
  089F : 0011;
  08A0 : FFFF;
  08A1 : 0018;
  08A2 : FFEF;
  08A3 : FFF2;
  08A4 : FFF6;
  08A5 : 0006;
  08A6 : 000F;
  08A7 : 0012;
  08A8 : FFF8;
  08A9 : FFE9;
  08AA : FFFE;
  08AB : 0008;
  08AC : FFE6;
  08AD : FFE6;
  08AE : 0000;
  08AF : FFEF;
  08B0 : FFF0;
  08B1 : 000E;
  08B2 : FFFE;
  08B3 : 000E;
  08B4 : 0010;
  08B5 : FFEC;
  08B6 : FFF2;
  08B7 : FFFC;
  08B8 : FFFB;
  08B9 : FFFE;
  08BA : 000C;
  08BB : FFEF;
  08BC : 000D;
  08BD : 0004;
  08BE : FFEE;
  08BF : 0007;
  08C0 : 0003;
  08C1 : FFF7;
  08C2 : 0014;
  08C3 : FFEE;
  08C4 : FFF7;
  08C5 : 000F;
  08C6 : 0002;
  08C7 : FFE8;
  08C8 : FFF9;
  08C9 : FFF5;
  08CA : FFF8;
  08CB : FFEE;
  08CC : FFE8;
  08CD : FFE4;
  08CE : 0003;
  08CF : FFE1;
  08D0 : FFEF;
  08D1 : FFFB;
  08D2 : FFEF;
  08D3 : FFE3;
  08D4 : FFE9;
  08D5 : FFF0;
  08D6 : FFDF;
  08D7 : FFFB;
  08D8 : 0003;
  08D9 : FFFC;
  08DA : FFF7;
  08DB : FFF2;
  08DC : 0009;
  08DD : 0004;
  08DE : FFE9;
  08DF : 0013;
  08E0 : 0000;
  08E1 : FFF2;
  08E2 : 0017;
  08E3 : FFFF;
  08E4 : 000C;
  08E5 : 000E;
  08E6 : 0011;
  08E7 : 0002;
  08E8 : 0013;
  08E9 : FFFC;
  08EA : 000A;
  08EB : 000B;
  08EC : 000A;
  08ED : FFF8;
  08EE : 0015;
  08EF : 0016;
  08F0 : 0003;
  08F1 : 000E;
  08F2 : FFF7;
  08F3 : 0001;
  08F4 : 0004;
  08F5 : FFF0;
  08F6 : 0013;
  08F7 : 0019;
  08F8 : FFFB;
  08F9 : 0017;
  08FA : FFF3;
  08FB : 0006;
  08FC : 000D;
  08FD : 000C;
  08FE : 0015;
  08FF : 0002;
  0900 : FFF7;
  0901 : FFF9;
  0902 : 001A;
  0903 : 0019;
  0904 : FFF2;
  0905 : 0014;
  0906 : 0000;
  0907 : 0018;
  0908 : 0009;
  0909 : FFFC;
  090A : 000F;
  090B : 0003;
  090C : 0012;
  090D : 0009;
  090E : 0009;
  090F : FFFF;
  0910 : 000F;
  0911 : 000C;
  0912 : 000C;
  0913 : FFFC;
  0914 : 0008;
  0915 : 0004;
  0916 : FFF1;
  0917 : FFFD;
  0918 : 0011;
  0919 : 0010;
  091A : FFFD;
  091B : 000E;
  091C : 0014;
  091D : 000F;
  091E : 0004;
  091F : FFF7;
  0920 : 000C;
  0921 : 001B;
  0922 : 0017;
  0923 : 0018;
  0924 : 0011;
  0925 : 0006;
  0926 : 0015;
  0927 : 0017;
  0928 : 0004;
  0929 : 000A;
  092A : 001D;
  092B : FFFA;
  092C : 000E;
  092D : 0004;
  092E : 0009;
  092F : FFF1;
  0930 : 0001;
  0931 : FFF9;
  0932 : FFE3;
  0933 : 0009;
  0934 : FFFA;
  0935 : 000E;
  0936 : 000B;
  0937 : 0006;
  0938 : FFFE;
  0939 : FFF4;
  093A : 0010;
  093B : 0010;
  093C : 0016;
  093D : 0010;
  093E : FFF3;
  093F : 000D;
  0940 : FFE3;
  0941 : FFEA;
  0942 : FFF6;
  0943 : 000A;
  0944 : FFEE;
  0945 : 0000;
  0946 : FFEC;
  0947 : 000C;
  0948 : FFE6;
  0949 : FFE7;
  094A : 0005;
  094B : FFF2;
  094C : FFEA;
  094D : FFF8;
  094E : FFFB;
  094F : FFF6;
  0950 : FFF0;
  0951 : 000D;
  0952 : 0006;
  0953 : FFF5;
  0954 : 000A;
  0955 : 000A;
  0956 : FFF6;
  0957 : 001F;
  0958 : 0001;
  0959 : 001E;
  095A : FFF7;
  095B : 000B;
  095C : 000E;
  095D : FFF4;
  095E : 0006;
  095F : 000B;
  0960 : FFF0;
  0961 : 0019;
  0962 : 0016;
  0963 : FFF4;
  0964 : 0014;
  0965 : FFEE;
  0966 : 000F;
  0967 : 0019;
  0968 : FFF3;
  0969 : FFF8;
  096A : 0017;
  096B : 0005;
  096C : 000B;
  096D : 0017;
  096E : FFF9;
  096F : 0007;
  0970 : FFFD;
  0971 : FFF7;
  0972 : FFF9;
  0973 : 0009;
  0974 : FFF9;
  0975 : FFFB;
  0976 : FFFD;
  0977 : FFF4;
  0978 : FFFC;
  0979 : FFF2;
  097A : 0000;
  097B : FFFF;
  097C : 0003;
  097D : FFEE;
  097E : 000E;
  097F : 0009;
  0980 : FFE8;
  0981 : FFFE;
  0982 : FFF9;
  0983 : 000F;
  0984 : FFEA;
  0985 : FFFB;
  0986 : FFFF;
  0987 : 0009;
  0988 : FFF0;
  0989 : 0003;
  098A : 000D;
  098B : FFF2;
  098C : FFF5;
  098D : FFF6;
  098E : FFF0;
  098F : FFF5;
  0990 : 000A;
  0991 : 000A;
  0992 : 000B;
  0993 : 0013;
  0994 : FFF6;
  0995 : FFF6;
  0996 : FFE5;
  0997 : 0003;
  0998 : FFEF;
  0999 : 000E;
  099A : 0008;
  099B : 0007;
  099C : FFE9;
  099D : FFFC;
  099E : 000A;
  099F : 0005;
  09A0 : 000C;
  09A1 : FFEF;
  09A2 : FFF4;
  09A3 : 000B;
  09A4 : FFF7;
  09A5 : 0012;
  09A6 : 0006;
  09A7 : 0009;
  09A8 : 000B;
  09A9 : 0006;
  09AA : FFF0;
  09AB : FFE9;
  09AC : 000C;
  09AD : FFFD;
  09AE : 0014;
  09AF : 0002;
  09B0 : 0018;
  09B1 : FFF5;
  09B2 : 0012;
  09B3 : FFED;
  09B4 : 0008;
  09B5 : 0005;
  09B6 : 001E;
  09B7 : 0007;
  09B8 : FFF9;
  09B9 : FFEF;
  09BA : 000C;
  09BB : 0013;
  09BC : FFFC;
  09BD : 000D;
  09BE : 000B;
  09BF : 0016;
  09C0 : 001B;
  09C1 : FFF9;
  09C2 : 001C;
  09C3 : 001B;
  09C4 : 0028;
  09C5 : 001C;
  09C6 : FFFE;
  09C7 : 001C;
  09C8 : FFEF;
  09C9 : 000C;
  09CA : 0007;
  09CB : FFF6;
  09CC : 0002;
  09CD : FFFB;
  09CE : 0009;
  09CF : 0003;
  09D0 : 0008;
  09D1 : FFFD;
  09D2 : FFF3;
  09D3 : FFFB;
  09D4 : 001B;
  09D5 : 000E;
  09D6 : FFFB;
  09D7 : 000A;
  09D8 : 0003;
  09D9 : FFFD;
  09DA : 0009;
  09DB : 0009;
  09DC : 0013;
  09DD : FFF7;
  09DE : FFE9;
  09DF : FFF6;
  09E0 : FFF0;
  09E1 : 0000;
  09E2 : FFED;
  09E3 : FFEB;
  09E4 : 000F;
  09E5 : 000B;
  09E6 : FFF1;
  09E7 : 000C;
  09E8 : FFEE;
  09E9 : 0017;
  09EA : FFF2;
  09EB : 0012;
  09EC : 001A;
  09ED : FFF0;
  09EE : FFFE;
  09EF : 000E;
  09F0 : 0000;
  09F1 : FFF4;
  09F2 : FFF6;
  09F3 : 000A;
  09F4 : FFF4;
  09F5 : 0002;
  09F6 : 000A;
  09F7 : 0002;
  09F8 : 001A;
  09F9 : FFFB;
  09FA : 0013;
  09FB : 0014;
  09FC : 001C;
  09FD : 0012;
  09FE : 0005;
  09FF : 001C;
  0A00 : FFE1;
  0A01 : FFEF;
  0A02 : 000C;
  0A03 : 000B;
  0A04 : 0013;
  0A05 : FFFB;
  0A06 : 0008;
  0A07 : 0009;
  0A08 : FFF6;
  0A09 : FFF3;
  0A0A : 0011;
  0A0B : 0011;
  0A0C : 0004;
  0A0D : FFF2;
  0A0E : FFF2;
  0A0F : 0014;
  0A10 : 0009;
  0A11 : FFF4;
  0A12 : FFFA;
  0A13 : 000F;
  0A14 : FFEB;
  0A15 : FFFA;
  0A16 : FFF4;
  0A17 : 000B;
  0A18 : 0009;
  0A19 : 0010;
  0A1A : FFF9;
  0A1B : 0009;
  0A1C : FFEB;
  0A1D : FFE7;
  0A1E : 0011;
  0A1F : 0005;
  0A20 : FFEF;
  0A21 : 0002;
  0A22 : FFF9;
  0A23 : FFEA;
  0A24 : 0007;
  0A25 : 0000;
  0A26 : 0013;
  0A27 : FFEE;
  0A28 : FFEE;
  0A29 : FFF8;
  0A2A : FFF8;
  0A2B : FFFE;
  0A2C : 0001;
  0A2D : 000E;
  0A2E : 0010;
  0A2F : 0006;
  0A30 : FFFD;
  0A31 : 0003;
  0A32 : 0010;
  0A33 : FFF0;
  0A34 : FFF8;
  0A35 : 000E;
  0A36 : 000E;
  0A37 : 0018;
  0A38 : 0010;
  0A39 : FFF4;
  0A3A : 0008;
  0A3B : 000A;
  0A3C : 0022;
  0A3D : 0012;
  0A3E : 001A;
  0A3F : FFF5;
  0A40 : 000E;
  0A41 : 0002;
  0A42 : 0001;
  0A43 : FFE8;
  0A44 : FFF4;
  0A45 : FFF3;
  0A46 : FFF7;
  0A47 : FFF5;
  0A48 : 0004;
  0A49 : FFFC;
  0A4A : 0001;
  0A4B : FFEB;
  0A4C : FFF9;
  0A4D : FFED;
  0A4E : 0003;
  0A4F : FFFC;
  0A50 : FFF6;
  0A51 : FFE6;
  0A52 : 0008;
  0A53 : FFF4;
  0A54 : FFEE;
  0A55 : FFF5;
  0A56 : 000B;
  0A57 : 0004;
  0A58 : FFEA;
  0A59 : 000D;
  0A5A : FFED;
  0A5B : FFEF;
  0A5C : FFEB;
  0A5D : FFEC;
  0A5E : 0007;
  0A5F : FFE9;
  0A60 : FFFE;
  0A61 : FFFC;
  0A62 : FFFE;
  0A63 : 0018;
  0A64 : FFFA;
  0A65 : FFFE;
  0A66 : 001D;
  0A67 : FFF7;
  0A68 : 0003;
  0A69 : FFF5;
  0A6A : FFF5;
  0A6B : 0000;
  0A6C : FFF9;
  0A6D : 001C;
  0A6E : 0000;
  0A6F : 0013;
  0A70 : FFF1;
  0A71 : 001D;
  0A72 : 0019;
  0A73 : FFFF;
  0A74 : 0010;
  0A75 : FFF9;
  0A76 : 0011;
  0A77 : 0015;
  0A78 : 0008;
  0A79 : 0002;
  0A7A : FFF6;
  0A7B : FFF9;
  0A7C : FFF3;
  0A7D : FFFB;
  0A7E : 0015;
  0A7F : FFF6;
  0A80 : 0005;
  0A81 : 0007;
  0A82 : FFF1;
  0A83 : FFE5;
  0A84 : FFE8;
  0A85 : FFFB;
  0A86 : FFFC;
  0A87 : FFF9;
  0A88 : FFE3;
  0A89 : FFF7;
  0A8A : FFE7;
  0A8B : FFF0;
  0A8C : FFEF;
  0A8D : FFF6;
  0A8E : 0004;
  0A8F : FFFD;
  0A90 : 0002;
  0A91 : FFFB;
  0A92 : FFE5;
  0A93 : 0004;
  0A94 : FFED;
  0A95 : FFE9;
  0A96 : 0010;
  0A97 : 0011;
  0A98 : FFFB;
  0A99 : 0004;
  0A9A : FFEF;
  0A9B : 0006;
  0A9C : FFE5;
  0A9D : FFF6;
  0A9E : FFFE;
  0A9F : 0000;
  0AA0 : FFEA;
  0AA1 : FFFC;
  0AA2 : 0003;
  0AA3 : 0008;
  0AA4 : FFF1;
  0AA5 : FFFF;
  0AA6 : 0007;
  0AA7 : FFF6;
  0AA8 : 000F;
  0AA9 : FFEE;
  0AAA : FFE9;
  0AAB : FFED;
  0AAC : FFF8;
  0AAD : 000B;
  0AAE : 0006;
  0AAF : FFF1;
  0AB0 : FFEA;
  0AB1 : FFEF;
  0AB2 : 0003;
  0AB3 : 0005;
  0AB4 : 0006;
  0AB5 : FFF4;
  0AB6 : FFFE;
  0AB7 : FFF5;
  0AB8 : 0018;
  0AB9 : 000F;
  0ABA : 000D;
  0ABB : 0019;
  0ABC : FFF6;
  0ABD : FFF4;
  0ABE : FFF9;
  0ABF : FFE7;
  0AC0 : 000D;
  0AC1 : FFF2;
  0AC2 : 0002;
  0AC3 : FFE4;
  0AC4 : FFFE;
  0AC5 : FFEA;
  0AC6 : FFF7;
  0AC7 : 0004;
  0AC8 : 0016;
  0AC9 : 0000;
  0ACA : 0000;
  0ACB : 0000;
  0ACC : 0009;
  0ACD : 000D;
  0ACE : FFEF;
  0ACF : 000D;
  0AD0 : FFF9;
  0AD1 : 000B;
  0AD2 : 0010;
  0AD3 : 0008;
  0AD4 : 000A;
  0AD5 : 0001;
  0AD6 : FFEC;
  0AD7 : 0011;
  0AD8 : FFFC;
  0AD9 : FFF2;
  0ADA : 000C;
  0ADB : 000B;
  0ADC : FFF4;
  0ADD : FFF1;
  0ADE : FFF3;
  0ADF : FFFA;
  0AE0 : FFFD;
  0AE1 : FFF4;
  0AE2 : FFEE;
  0AE3 : 000C;
  0AE4 : 000D;
  0AE5 : FFE8;
  0AE6 : FFF8;
  0AE7 : FFF2;
  0AE8 : FFF1;
  0AE9 : FFEE;
  0AEA : FFEC;
  0AEB : FFF2;
  0AEC : 0006;
  0AED : 0009;
  0AEE : 0001;
  0AEF : FFEF;
  0AF0 : 0009;
  0AF1 : FFEF;
  0AF2 : 0014;
  0AF3 : 0004;
  0AF4 : FFF6;
  0AF5 : 0007;
  0AF6 : FFFF;
  0AF7 : 0018;
  0AF8 : 000E;
  0AF9 : FFF9;
  0AFA : 0002;
  0AFB : 0015;
  0AFC : 0008;
  0AFD : 0010;
  0AFE : 0016;
  0AFF : 001E;
  0B00 : FFFE;
  0B01 : FFEE;
  0B02 : 0003;
  0B03 : FFE5;
  0B04 : 000F;
  0B05 : FFF8;
  0B06 : FFFB;
  0B07 : FFF1;
  0B08 : 000B;
  0B09 : FFE9;
  0B0A : FFE6;
  0B0B : FFF7;
  0B0C : FFFD;
  0B0D : 0005;
  0B0E : 0005;
  0B0F : 000E;
  0B10 : 0002;
  0B11 : FFEC;
  0B12 : FFE9;
  0B13 : FFF0;
  0B14 : FFED;
  0B15 : 0017;
  0B16 : 0016;
  0B17 : FFFD;
  0B18 : FFEF;
  0B19 : FFF1;
  0B1A : FFF4;
  0B1B : 0017;
  0B1C : 0008;
  0B1D : 0008;
  0B1E : 0006;
  0B1F : 0012;
  0B20 : FFF6;
  0B21 : 000D;
  0B22 : FFF1;
  0B23 : FFF6;
  0B24 : 0001;
  0B25 : 0013;
  0B26 : 000E;
  0B27 : 000C;
  0B28 : 0017;
  0B29 : FFF3;
  0B2A : FFED;
  0B2B : FFEB;
  0B2C : 000D;
  0B2D : FFFA;
  0B2E : 0006;
  0B2F : 0002;
  0B30 : FFF8;
  0B31 : FFF5;
  0B32 : FFF1;
  0B33 : FFFB;
  0B34 : FFE7;
  0B35 : 000C;
  0B36 : 0005;
  0B37 : 000D;
  0B38 : FFF4;
  0B39 : 0007;
  0B3A : FFFF;
  0B3B : FFF3;
  0B3C : FFEE;
  0B3D : FFFB;
  0B3E : FFE4;
  0B3F : FFED;
  0B40 : FFFD;
  0B41 : 0006;
  0B42 : FFF5;
  0B43 : FFF8;
  0B44 : 0014;
  0B45 : 0012;
  0B46 : 0005;
  0B47 : FFF7;
  0B48 : 0009;
  0B49 : 000C;
  0B4A : 0002;
  0B4B : 0008;
  0B4C : 0007;
  0B4D : 0015;
  0B4E : FFF6;
  0B4F : FFFE;
  0B50 : 000E;
  0B51 : FFF9;
  0B52 : 0000;
  0B53 : FFF2;
  0B54 : FFFC;
  0B55 : FFFC;
  0B56 : FFF0;
  0B57 : FFE9;
  0B58 : 0010;
  0B59 : FFF9;
  0B5A : 0012;
  0B5B : 0015;
  0B5C : 0013;
  0B5D : FFFB;
  0B5E : FFEC;
  0B5F : FFF5;
  0B60 : 000A;
  0B61 : FFF6;
  0B62 : FFEC;
  0B63 : FFFC;
  0B64 : FFEB;
  0B65 : 0007;
  0B66 : 0010;
  0B67 : FFEC;
  0B68 : 0017;
  0B69 : FFFD;
  0B6A : FFF5;
  0B6B : 0015;
  0B6C : 0013;
  0B6D : 0003;
  0B6E : 000D;
  0B6F : 000F;
  0B70 : 001B;
  0B71 : FFF2;
  0B72 : 001A;
  0B73 : 0008;
  0B74 : 0012;
  0B75 : 000E;
  0B76 : 0011;
  0B77 : 0013;
  0B78 : FFFD;
  0B79 : 001C;
  0B7A : FFFD;
  0B7B : 001E;
  0B7C : 0002;
  0B7D : 000D;
  0B7E : 000D;
  0B7F : 001A;
  0B80 : FFE9;
  0B81 : 0013;
  0B82 : 0010;
  0B83 : FFF7;
  0B84 : 0003;
  0B85 : FFE9;
  0B86 : FFE8;
  0B87 : 0006;
  0B88 : 000C;
  0B89 : 0008;
  0B8A : FFE8;
  0B8B : FFF0;
  0B8C : FFED;
  0B8D : FFF5;
  0B8E : 0013;
  0B8F : 0015;
  0B90 : 0007;
  0B91 : 000B;
  0B92 : FFF4;
  0B93 : 0004;
  0B94 : FFF1;
  0B95 : FFF0;
  0B96 : 000D;
  0B97 : 001D;
  0B98 : 000C;
  0B99 : 000B;
  0B9A : 0006;
  0B9B : FFF4;
  0B9C : FFF5;
  0B9D : FFF6;
  0B9E : 000A;
  0B9F : 000E;
  0BA0 : 0001;
  0BA1 : 0000;
  0BA2 : 0015;
  0BA3 : 0012;
  0BA4 : FFEB;
  0BA5 : 0002;
  0BA6 : FFFB;
  0BA7 : 0012;
  0BA8 : FFF0;
  0BA9 : 0012;
  0BAA : FFE4;
  0BAB : FFFA;
  0BAC : 0004;
  0BAD : FFF5;
  0BAE : 0006;
  0BAF : FFF3;
  0BB0 : FFE5;
  0BB1 : FFEF;
  0BB2 : FFFD;
  0BB3 : FFF4;
  0BB4 : 0008;
  0BB5 : 000B;
  0BB6 : 0018;
  0BB7 : 0010;
  0BB8 : FFFC;
  0BB9 : FFF9;
  0BBA : FFF2;
  0BBB : 000D;
  0BBC : FFF3;
  0BBD : 0013;
  0BBE : FFF3;
  0BBF : FFF6;
  0BC0 : FFFA;
  0BC1 : FFFB;
  0BC2 : FFFF;
  0BC3 : 0000;
  0BC4 : 0023;
  0BC5 : FFFA;
  0BC6 : 000E;
  0BC7 : 0006;
  0BC8 : 000F;
  0BC9 : 0004;
  0BCA : FFFF;
  0BCB : 0013;
  0BCC : 0018;
  0BCD : FFFB;
  0BCE : FFFE;
  0BCF : 000C;
  0BD0 : FFEB;
  0BD1 : 0002;
  0BD2 : 0007;
  0BD3 : FFE9;
  0BD4 : FFF4;
  0BD5 : FFDB;
  0BD6 : FFD5;
  0BD7 : FFDF;
  0BD8 : FFFF;
  0BD9 : FFF8;
  0BDA : 0003;
  0BDB : FFFF;
  0BDC : FFED;
  0BDD : FFF4;
  0BDE : 0010;
  0BDF : 0001;
  0BE0 : 000B;
  0BE1 : 000D;
  0BE2 : FFFC;
  0BE3 : FFF8;
  0BE4 : 0003;
  0BE5 : 000C;
  0BE6 : FFF7;
  0BE7 : 001B;
  0BE8 : 0016;
  0BE9 : 0007;
  0BEA : 0000;
  0BEB : 001C;
  0BEC : 0000;
  0BED : 0002;
  0BEE : 0016;
  0BEF : FFF7;
  0BF0 : 0015;
  0BF1 : 0003;
  0BF2 : FFF1;
  0BF3 : FFF4;
  0BF4 : 0013;
  0BF5 : 000A;
  0BF6 : FFFE;
  0BF7 : 0018;
  0BF8 : FFFE;
  0BF9 : 0000;
  0BFA : 000C;
  0BFB : FFF0;
  0BFC : 0007;
  0BFD : 0015;
  0BFE : 0004;
  0BFF : 001E;
  0C00 : FFFC;
  0C01 : 0011;
  0C02 : 0014;
  0C03 : 0009;
  0C04 : 0007;
  0C05 : 0018;
  0C06 : 0009;
  0C07 : FFEF;
  0C08 : 000C;
  0C09 : 0006;
  0C0A : FFF0;
  0C0B : FFE8;
  0C0C : 0003;
  0C0D : 000C;
  0C0E : 000B;
  0C0F : FFE4;
  0C10 : FFE2;
  0C11 : 0001;
  0C12 : FFEF;
  0C13 : FFEA;
  0C14 : FFE9;
  0C15 : 0003;
  0C16 : FFF8;
  0C17 : FFDE;
  0C18 : FFDE;
  0C19 : 0002;
  0C1A : 0000;
  0C1B : 0006;
  0C1C : 0003;
  0C1D : FFF0;
  0C1E : FFF5;
  0C1F : 0000;
  0C20 : FFE8;
  0C21 : FFEB;
  0C22 : 000E;
  0C23 : 000A;
  0C24 : FFF0;
  0C25 : FFE4;
  0C26 : FFE5;
  0C27 : FFF7;
  0C28 : 0000;
  0C29 : FFE4;
  0C2A : FFF5;
  0C2B : FFFB;
  0C2C : FFFE;
  0C2D : FFE2;
  0C2E : FFEA;
  0C2F : 0000;
  0C30 : 0001;
  0C31 : FFFA;
  0C32 : FFEE;
  0C33 : 0011;
  0C34 : 0011;
  0C35 : 0011;
  0C36 : FFF8;
  0C37 : 0023;
  0C38 : 0009;
  0C39 : 0005;
  0C3A : 001A;
  0C3B : 0017;
  0C3C : 000B;
  0C3D : 0002;
  0C3E : FFF0;
  0C3F : FFFF;
  0C40 : FFF5;
  0C41 : FFE9;
  0C42 : 0011;
  0C43 : 0013;
  0C44 : FFFB;
  0C45 : 0009;
  0C46 : 0013;
  0C47 : FFEC;
  0C48 : FFFB;
  0C49 : FFEF;
  0C4A : 0012;
  0C4B : 0011;
  0C4C : 0010;
  0C4D : FFEF;
  0C4E : FFF1;
  0C4F : 000B;
  0C50 : FFEB;
  0C51 : FFFC;
  0C52 : FFFD;
  0C53 : FFFE;
  0C54 : FFFF;
  0C55 : 0007;
  0C56 : FFFD;
  0C57 : FFF2;
  0C58 : 0002;
  0C59 : FFFC;
  0C5A : 0006;
  0C5B : 001A;
  0C5C : 0004;
  0C5D : 0002;
  0C5E : 000C;
  0C5F : 000D;
  0C60 : 0001;
  0C61 : 0002;
  0C62 : FFFF;
  0C63 : 001B;
  0C64 : 0007;
  0C65 : 000C;
  0C66 : 001F;
  0C67 : 0014;
  0C68 : 0020;
  0C69 : 0008;
  0C6A : FFFE;
  0C6B : 0017;
  0C6C : 001E;
  0C6D : 0009;
  0C6E : 000F;
  0C6F : 0004;
  0C70 : FFF6;
  0C71 : FFFA;
  0C72 : FFF4;
  0C73 : 0012;
  0C74 : FFFB;
  0C75 : FFF4;
  0C76 : FFF0;
  0C77 : FFEF;
  0C78 : 0009;
  0C79 : 0009;
  0C7A : FFF3;
  0C7B : 000D;
  0C7C : FFF1;
  0C7D : FFF6;
  0C7E : FFE3;
  0C7F : FFE5;
  0C80 : 0004;
  0C81 : 0016;
  0C82 : 0011;
  0C83 : 001B;
  0C84 : FFF8;
  0C85 : 0010;
  0C86 : 0019;
  0C87 : 000F;
  0C88 : 0018;
  0C89 : 0012;
  0C8A : FFF8;
  0C8B : 0011;
  0C8C : 000D;
  0C8D : FFF7;
  0C8E : FFF1;
  0C8F : 0009;
  0C90 : FFFD;
  0C91 : FFF5;
  0C92 : FFF3;
  0C93 : 0008;
  0C94 : 001B;
  0C95 : 0005;
  0C96 : FFF0;
  0C97 : 000E;
  0C98 : FFFF;
  0C99 : 0010;
  0C9A : 0008;
  0C9B : FFEC;
  0C9C : FFE9;
  0C9D : FFFA;
  0C9E : FFFF;
  0C9F : 0007;
  0CA0 : FFEA;
  0CA1 : FFEF;
  0CA2 : FFFF;
  0CA3 : FFE9;
  0CA4 : FFFA;
  0CA5 : 0007;
  0CA6 : FFFB;
  0CA7 : FFE9;
  0CA8 : FFF0;
  0CA9 : FFFB;
  0CAA : FFFD;
  0CAB : FFF4;
  0CAC : 0008;
  0CAD : FFF2;
  0CAE : FFFF;
  0CAF : 000A;
  0CB0 : 0001;
  0CB1 : FFF7;
  0CB2 : FFED;
  0CB3 : 000E;
  0CB4 : 0009;
  0CB5 : FFEF;
  0CB6 : FFFA;
  0CB7 : FFF7;
  0CB8 : 0004;
  0CB9 : 001E;
  0CBA : FFF5;
  0CBB : 001E;
  0CBC : 0001;
  0CBD : FFF6;
  0CBE : 0006;
  0CBF : 0012;
  0CC0 : 000D;
  0CC1 : 000F;
  0CC2 : 0001;
  0CC3 : 0009;
  0CC4 : FFDD;
  0CC5 : FFE9;
  0CC6 : FFF6;
  0CC7 : FFE5;
  0CC8 : 0003;
  0CC9 : FFF9;
  0CCA : 0001;
  0CCB : FFF2;
  0CCC : FFE9;
  0CCD : FFEA;
  0CCE : 0007;
  0CCF : FFF8;
  0CD0 : 000C;
  0CD1 : 000E;
  0CD2 : 000D;
  0CD3 : FFFA;
  0CD4 : FFF6;
  0CD5 : 000E;
  0CD6 : FFFA;
  0CD7 : 0006;
  0CD8 : 0014;
  0CD9 : 0001;
  0CDA : 0017;
  0CDB : 0012;
  0CDC : 0017;
  0CDD : 0015;
  0CDE : 000F;
  0CDF : FFFC;
  0CE0 : 0000;
  0CE1 : FFF2;
  0CE2 : 0008;
  0CE3 : FFF4;
  0CE4 : 000E;
  0CE5 : 0004;
  0CE6 : 0014;
  0CE7 : 0013;
  0CE8 : FFF6;
  0CE9 : 000F;
  0CEA : 0010;
  0CEB : 0006;
  0CEC : 000D;
  0CED : FFF5;
  0CEE : FFF6;
  0CEF : FFF6;
  0CF0 : FFED;
  0CF1 : FFEE;
  0CF2 : 0006;
  0CF3 : FFED;
  0CF4 : FFEB;
  0CF5 : 0005;
  0CF6 : 0007;
  0CF7 : FFFC;
  0CF8 : 000B;
  0CF9 : FFEF;
  0CFA : FFEB;
  0CFB : FFF5;
  0CFC : 000D;
  0CFD : FFED;
  0CFE : FFF9;
  0CFF : FFF4;
  0D00 : FFEF;
  0D01 : 0002;
  0D02 : FFFA;
  0D03 : 0019;
  0D04 : 000B;
  0D05 : 0004;
  0D06 : 0001;
  0D07 : 0012;
  0D08 : 0017;
  0D09 : 0009;
  0D0A : 001A;
  0D0B : 001C;
  0D0C : FFF2;
  0D0D : 0009;
  0D0E : 000C;
  0D0F : 0018;
  0D10 : 000F;
  0D11 : 0004;
  0D12 : FFFC;
  0D13 : 0018;
  0D14 : 000D;
  0D15 : 001A;
  0D16 : 0012;
  0D17 : 0005;
  0D18 : FFF2;
  0D19 : 000F;
  0D1A : 0000;
  0D1B : 0003;
  0D1C : 001C;
  0D1D : FFF6;
  0D1E : 0012;
  0D1F : FFF9;
  0D20 : 0007;
  0D21 : 0003;
  0D22 : 0008;
  0D23 : 0009;
  0D24 : 0008;
  0D25 : 0000;
  0D26 : 0012;
  0D27 : 0016;
  0D28 : 0012;
  0D29 : 0016;
  0D2A : 001E;
  0D2B : 0008;
  0D2C : 000B;
  0D2D : 0011;
  0D2E : FFF6;
  0D2F : FFF7;
  0D30 : 0013;
  0D31 : 0003;
  0D32 : FFFB;
  0D33 : 0015;
  0D34 : 000C;
  0D35 : FFFD;
  0D36 : 0008;
  0D37 : FFFE;
  0D38 : 0000;
  0D39 : FFF7;
  0D3A : FFF4;
  0D3B : 0002;
  0D3C : 0014;
  0D3D : 001A;
  0D3E : 0018;
  0D3F : 0001;
  0D40 : 000C;
  0D41 : FFF9;
  0D42 : 000E;
  0D43 : 0007;
  0D44 : 0000;
  0D45 : FFFF;
  0D46 : FFDA;
  0D47 : FFF3;
  0D48 : 0001;
  0D49 : 0006;
  0D4A : 0009;
  0D4B : 0017;
  0D4C : FFFB;
  0D4D : FFFE;
  0D4E : 0004;
  0D4F : 000B;
  0D50 : FFF4;
  0D51 : FFED;
  0D52 : 0009;
  0D53 : 0012;
  0D54 : FFF3;
  0D55 : FFE7;
  0D56 : 0006;
  0D57 : 0012;
  0D58 : 000D;
  0D59 : FFEC;
  0D5A : FFF8;
  0D5B : 0008;
  0D5C : 0008;
  0D5D : FFF1;
  0D5E : 000D;
  0D5F : FFF8;
  0D60 : FFEF;
  0D61 : FFFA;
  0D62 : FFF1;
  0D63 : FFE9;
  0D64 : FFFC;
  0D65 : FFE6;
  0D66 : 0000;
  0D67 : 0005;
  0D68 : FFED;
  0D69 : FFF0;
  0D6A : FFF8;
  0D6B : FFED;
  0D6C : 0001;
  0D6D : FFFD;
  0D6E : 000C;
  0D6F : 0006;
  0D70 : FFFF;
  0D71 : FFF4;
  0D72 : 0009;
  0D73 : 0007;
  0D74 : FFE6;
  0D75 : 000E;
  0D76 : 0003;
  0D77 : 0001;
  0D78 : 0011;
  0D79 : 0010;
  0D7A : FFFD;
  0D7B : 0009;
  0D7C : 0002;
  0D7D : FFF3;
  0D7E : 0004;
  0D7F : 000A;
  0D80 : FFF5;
  0D81 : 0010;
  0D82 : FFFD;
  0D83 : FFED;
  0D84 : FFF5;
  0D85 : 0002;
  0D86 : FFED;
  0D87 : FFEF;
  0D88 : 0004;
  0D89 : FFFC;
  0D8A : 000A;
  0D8B : FFFF;
  0D8C : 0013;
  0D8D : 0007;
  0D8E : FFEF;
  0D8F : FFFC;
  0D90 : FFEE;
  0D91 : 0009;
  0D92 : 0006;
  0D93 : 000F;
  0D94 : FFFE;
  0D95 : 0018;
  0D96 : FFEF;
  0D97 : FFF9;
  0D98 : 0017;
  0D99 : 000D;
  0D9A : FFEF;
  0D9B : 0004;
  0D9C : 0003;
  0D9D : 0005;
  0D9E : FFF7;
  0D9F : 0008;
  0DA0 : FFF6;
  0DA1 : FFF1;
  0DA2 : FFFF;
  0DA3 : 000D;
  0DA4 : 0004;
  0DA5 : FFE9;
  0DA6 : 000B;
  0DA7 : 000D;
  0DA8 : FFEA;
  0DA9 : FFE7;
  0DAA : FFFE;
  0DAB : FFFD;
  0DAC : FFF6;
  0DAD : FFFE;
  0DAE : 000E;
  0DAF : FFFD;
  0DB0 : FFEE;
  0DB1 : FFF8;
  0DB2 : FFF6;
  0DB3 : 0005;
  0DB4 : 000B;
  0DB5 : FFFD;
  0DB6 : FFFB;
  0DB7 : 0003;
  0DB8 : 001F;
  0DB9 : 001D;
  0DBA : 000D;
  0DBB : 0000;
  0DBC : FFED;
  0DBD : 000F;
  0DBE : FFE6;
  0DBF : 0006;
  0DC0 : FFE1;
  0DC1 : FFFC;
  0DC2 : FFF1;
  0DC3 : 0000;
  0DC4 : FFF2;
  0DC5 : FFE8;
  0DC6 : 000A;
  0DC7 : 0008;
  0DC8 : 0008;
  0DC9 : 0012;
  0DCA : 000E;
  0DCB : FFEE;
  0DCC : 001A;
  0DCD : FFF5;
  0DCE : 0006;
  0DCF : 000C;
  0DD0 : FFEA;
  0DD1 : 0010;
  0DD2 : FFF0;
  0DD3 : FFEA;
  0DD4 : FFE7;
  0DD5 : FFFF;
  0DD6 : FFF5;
  0DD7 : FFFA;
  0DD8 : FFE6;
  0DD9 : FFF4;
  0DDA : 0012;
  0DDB : FFF0;
  0DDC : FFF5;
  0DDD : FFF3;
  0DDE : 000B;
  0DDF : FFF9;
  0DE0 : 0000;
  0DE1 : 001B;
  0DE2 : FFF9;
  0DE3 : 0016;
  0DE4 : 000E;
  0DE5 : 0009;
  0DE6 : 000C;
  0DE7 : 0018;
  0DE8 : 0005;
  0DE9 : FFF8;
  0DEA : FFFD;
  0DEB : 0017;
  0DEC : 0001;
  0DED : 0014;
  0DEE : FFFD;
  0DEF : FFF6;
  0DF0 : 0019;
  0DF1 : 0018;
  0DF2 : FFF4;
  0DF3 : FFF0;
  0DF4 : FFF3;
  0DF5 : 0017;
  0DF6 : 0019;
  0DF7 : 0001;
  0DF8 : 0001;
  0DF9 : FFFD;
  0DFA : FFF8;
  0DFB : 0005;
  0DFC : 0012;
  0DFD : 0010;
  0DFE : 0013;
  0DFF : 0014;
  0E00 : 000C;
  0E01 : FFE2;
  0E02 : 0007;
  0E03 : FFF1;
  0E04 : FFF9;
  0E05 : 0002;
  0E06 : FFFF;
  0E07 : FFFF;
  0E08 : FFE4;
  0E09 : 0006;
  0E0A : FFFC;
  0E0B : FFFB;
  0E0C : FFF2;
  0E0D : 0008;
  0E0E : FFEA;
  0E0F : FFF9;
  0E10 : FFFD;
  0E11 : FFF4;
  0E12 : 000D;
  0E13 : 000F;
  0E14 : FFF6;
  0E15 : 0003;
  0E16 : FFF7;
  0E17 : 0017;
  0E18 : 0004;
  0E19 : FFF1;
  0E1A : 0004;
  0E1B : FFEB;
  0E1C : FFF6;
  0E1D : FFEF;
  0E1E : FFEE;
  0E1F : FFF4;
  0E20 : FFE8;
  0E21 : FFFA;
  0E22 : FFE7;
  0E23 : FFE6;
  0E24 : 000B;
  0E25 : FFEB;
  0E26 : 0010;
  0E27 : 000B;
  0E28 : FFFE;
  0E29 : 0011;
  0E2A : FFEE;
  0E2B : 000F;
  0E2C : FFEF;
  0E2D : FFFB;
  0E2E : FFEE;
  0E2F : FFEC;
  0E30 : 0006;
  0E31 : FFFC;
  0E32 : FFEC;
  0E33 : 0009;
  0E34 : 0010;
  0E35 : 0007;
  0E36 : FFFD;
  0E37 : 0017;
  0E38 : FFFF;
  0E39 : FFFF;
  0E3A : FFFC;
  0E3B : 0007;
  0E3C : 000B;
  0E3D : 0003;
  0E3E : FFF7;
  0E3F : FFF2;
  0E40 : FFE8;
  0E41 : FFF8;
  0E42 : 0003;
  0E43 : 0000;
  0E44 : FFEC;
  0E45 : FFFD;
  0E46 : 0010;
  0E47 : 0002;
  0E48 : 0000;
  0E49 : FFF9;
  0E4A : 0006;
  0E4B : 001B;
  0E4C : FFF8;
  0E4D : 001A;
  0E4E : 0010;
  0E4F : 0010;
  0E50 : 0016;
  0E51 : 0017;
  0E52 : 0016;
  0E53 : 001D;
  0E54 : 0001;
  0E55 : 000F;
  0E56 : FFFD;
  0E57 : 0008;
  0E58 : 0014;
  0E59 : 0012;
  0E5A : 0019;
  0E5B : 0016;
  0E5C : 0007;
  0E5D : 0000;
  0E5E : 0009;
  0E5F : 001A;
  0E60 : FFF7;
  0E61 : FFF8;
  0E62 : FFF2;
  0E63 : 0007;
  0E64 : FFF0;
  0E65 : FFFD;
  0E66 : 0006;
  0E67 : FFFB;
  0E68 : 0002;
  0E69 : FFF9;
  0E6A : 0005;
  0E6B : 0005;
  0E6C : 000C;
  0E6D : 0005;
  0E6E : 0004;
  0E6F : FFF0;
  0E70 : FFED;
  0E71 : FFF8;
  0E72 : 0014;
  0E73 : 0014;
  0E74 : FFEA;
  0E75 : FFEE;
  0E76 : 000A;
  0E77 : FFF1;
  0E78 : FFFF;
  0E79 : FFFD;
  0E7A : FFEF;
  0E7B : 000F;
  0E7C : 0008;
  0E7D : 0011;
  0E7E : FFEE;
  0E7F : FFF9;
  0E80 : 0001;
  0E81 : 0005;
  0E82 : 0002;
  0E83 : 000F;
  0E84 : FFFE;
  0E85 : 0005;
  0E86 : FFF1;
  0E87 : 000C;
  0E88 : 0011;
  0E89 : 0004;
  0E8A : FFED;
  0E8B : FFEE;
  0E8C : 000F;
  0E8D : 0009;
  0E8E : FFFE;
  0E8F : 0010;
  0E90 : 0009;
  0E91 : 0000;
  0E92 : 0015;
  0E93 : FFFF;
  0E94 : 0001;
  0E95 : FFF8;
  0E96 : 0006;
  0E97 : 000F;
  0E98 : FFF5;
  0E99 : 0018;
  0E9A : 0003;
  0E9B : 0007;
  0E9C : 0007;
  0E9D : 0010;
  0E9E : 000A;
  0E9F : FFF6;
  0EA0 : 0003;
  0EA1 : FFFB;
  0EA2 : 0015;
  0EA3 : 0002;
  0EA4 : 0000;
  0EA5 : FFF0;
  0EA6 : 0016;
  0EA7 : 000F;
  0EA8 : 0001;
  0EA9 : 000C;
  0EAA : FFF3;
  0EAB : 0002;
  0EAC : FFF7;
  0EAD : FFF0;
  0EAE : 0013;
  0EAF : FFF7;
  0EB0 : FFF1;
  0EB1 : FFE6;
  0EB2 : FFEB;
  0EB3 : FFEF;
  0EB4 : FFF1;
  0EB5 : FFFD;
  0EB6 : 000D;
  0EB7 : FFF6;
  0EB8 : 000B;
  0EB9 : FFF7;
  0EBA : FFE2;
  0EBB : FFF2;
  0EBC : 0000;
  0EBD : FFEA;
  0EBE : 0000;
  0EBF : FFF3;
  0EC0 : FFEC;
  0EC1 : FFFD;
  0EC2 : FFEF;
  0EC3 : FFF2;
  0EC4 : 001B;
  0EC5 : 001F;
  0EC6 : 000F;
  0EC7 : 0013;
  0EC8 : 0008;
  0EC9 : 001C;
  0ECA : 0000;
  0ECB : FFFB;
  0ECC : 0008;
  0ECD : 0003;
  0ECE : 001B;
  0ECF : 0007;
  0ED0 : 0014;
  0ED1 : FFF8;
  0ED2 : 0008;
  0ED3 : FFE3;
  0ED4 : FFEB;
  0ED5 : 0006;
  0ED6 : FFE9;
  0ED7 : FFF5;
  0ED8 : FFEE;
  0ED9 : 0008;
  0EDA : FFF0;
  0EDB : 0005;
  0EDC : FFFB;
  0EDD : 0000;
  0EDE : 0007;
  0EDF : FFF5;
  0EE0 : FFF9;
  0EE1 : FFFA;
  0EE2 : FFEE;
  0EE3 : 0012;
  0EE4 : 000D;
  0EE5 : 0006;
  0EE6 : FFF9;
  0EE7 : FFF8;
  0EE8 : 0009;
  0EE9 : FFF4;
  0EEA : FFFF;
  0EEB : 0012;
  0EEC : FFF5;
  0EED : FFEF;
  0EEE : FFF0;
  0EEF : FFF5;
  0EF0 : FFFC;
  0EF1 : 0008;
  0EF2 : 000D;
  0EF3 : 0011;
  0EF4 : FFE8;
  0EF5 : 0007;
  0EF6 : 0006;
  0EF7 : FFFD;
  0EF8 : 000A;
  0EF9 : 0007;
  0EFA : FFF8;
  0EFB : 0000;
  0EFC : 000F;
  0EFD : 0011;
  0EFE : 0012;
  0EFF : FFFE;
  0F00 : FFF1;
  0F01 : 000F;
  0F02 : FFF0;
  0F03 : 0004;
  0F04 : FFFC;
  0F05 : FFEF;
  0F06 : 001B;
  0F07 : FFF1;
  0F08 : 000D;
  0F09 : 0019;
  0F0A : FFFF;
  0F0B : 0000;
  0F0C : FFF7;
  0F0D : FFFD;
  0F0E : FFF8;
  0F0F : FFF8;
  0F10 : FFF6;
  0F11 : 0012;
  0F12 : 0011;
  0F13 : 001C;
  0F14 : 0000;
  0F15 : 001A;
  0F16 : 0012;
  0F17 : 0019;
  0F18 : 000A;
  0F19 : 000B;
  0F1A : FFF3;
  0F1B : 000F;
  0F1C : FFF4;
  0F1D : 0017;
  0F1E : FFF2;
  0F1F : 0012;
  0F20 : FFFA;
  0F21 : 0010;
  0F22 : 0016;
  0F23 : 0009;
  0F24 : FFF8;
  0F25 : 0011;
  0F26 : 0002;
  0F27 : FFFA;
  0F28 : 0001;
  0F29 : FFFB;
  0F2A : FFFD;
  0F2B : FFE7;
  0F2C : FFFB;
  0F2D : 000C;
  0F2E : 0002;
  0F2F : FFFF;
  0F30 : 0009;
  0F31 : FFFE;
  0F32 : FFE8;
  0F33 : FFF9;
  0F34 : FFF3;
  0F35 : FFF8;
  0F36 : 000A;
  0F37 : 0007;
  0F38 : FFE5;
  0F39 : FFF4;
  0F3A : FFF1;
  0F3B : FFEE;
  0F3C : FFF3;
  0F3D : FFFA;
  0F3E : FFFB;
  0F3F : FFF4;
  0F40 : 001B;
  0F41 : 0016;
  0F42 : 0002;
  0F43 : 000A;
  0F44 : FFF7;
  0F45 : 0013;
  0F46 : 0014;
  0F47 : FFFF;
  0F48 : 000C;
  0F49 : 0000;
  0F4A : FFFF;
  0F4B : 0001;
  0F4C : FFF7;
  0F4D : FFEE;
  0F4E : FFE1;
  0F4F : FFE7;
  0F50 : FFE8;
  0F51 : 0003;
  0F52 : FFF5;
  0F53 : FFF3;
  0F54 : 0018;
  0F55 : 0011;
  0F56 : 000A;
  0F57 : 0019;
  0F58 : 0012;
  0F59 : 0013;
  0F5A : FFE9;
  0F5B : 0006;
  0F5C : FFEA;
  0F5D : FFF1;
  0F5E : FFEB;
  0F5F : 0005;
  0F60 : FFF6;
  0F61 : 0008;
  0F62 : FFEC;
  0F63 : FFEA;
  0F64 : 0011;
  0F65 : 0002;
  0F66 : 000F;
  0F67 : 0018;
  0F68 : 0008;
  0F69 : 000C;
  0F6A : 0010;
  0F6B : 000B;
  0F6C : 0011;
  0F6D : FFF3;
  0F6E : FFF1;
  0F6F : FFF7;
  0F70 : FFF8;
  0F71 : FFEB;
  0F72 : 0007;
  0F73 : FFF2;
  0F74 : 0006;
  0F75 : 0013;
  0F76 : 0001;
  0F77 : FFE9;
  0F78 : FFE6;
  0F79 : FFF1;
  0F7A : FFEF;
  0F7B : FFFA;
  0F7C : 0001;
  0F7D : 0006;
  0F7E : 0004;
  0F7F : FFEF;
  0F80 : 0019;
  0F81 : FFF6;
  0F82 : 0000;
  0F83 : FFF4;
  0F84 : 0010;
  0F85 : 0007;
  0F86 : FFF9;
  0F87 : 0004;
  0F88 : FFF0;
  0F89 : FFF1;
  0F8A : 0009;
  0F8B : FFFB;
  0F8C : 0004;
  0F8D : FFF9;
  0F8E : 0003;
  0F8F : 0014;
  0F90 : 0008;
  0F91 : FFF4;
  0F92 : FFF1;
  0F93 : FFF5;
  0F94 : FFF8;
  0F95 : 001B;
  0F96 : FFF9;
  0F97 : 0000;
  0F98 : 0018;
  0F99 : 0019;
  0F9A : 0012;
  0F9B : FFF0;
  0F9C : 000D;
  0F9D : FFEE;
  0F9E : FFE9;
  0F9F : 0004;
  0FA0 : 000D;
  0FA1 : 0002;
  0FA2 : FFFF;
  0FA3 : 0009;
  0FA4 : FFE8;
  0FA5 : 000F;
  0FA6 : FFEE;
  0FA7 : FFF7;
  0FA8 : FFF8;
  0FA9 : 0010;
  0FAA : FFF2;
  0FAB : FFFD;
  0FAC : 000F;
  0FAD : FFF5;
  0FAE : FFFA;
  0FAF : 0010;
  0FB0 : 0005;
  0FB1 : FFFC;
  0FB2 : FFF7;
  0FB3 : 000A;
  0FB4 : FFF5;
  0FB5 : FFF8;
  0FB6 : FFFB;
  0FB7 : FFF8;
  0FB8 : 0004;
  0FB9 : 000D;
  0FBA : 0011;
  0FBB : 0010;
  0FBC : 0014;
  0FBD : 001B;
  0FBE : 0010;
  0FBF : 0005;
  0FC0 : 001D;
  0FC1 : 0015;
  0FC2 : 000E;
  0FC3 : FFF5;
  0FC4 : 0019;
  0FC5 : 000D;
  0FC6 : FFFD;
  0FC7 : FFF3;
  0FC8 : 0012;
  0FC9 : 000E;
  0FCA : 0007;
  0FCB : 0001;
  0FCC : FFEC;
  0FCD : 0003;
  0FCE : FFFF;
  0FCF : FFEB;
  0FD0 : FFF7;
  0FD1 : 0010;
  0FD2 : FFF3;
  0FD3 : FFFF;
  0FD4 : FFF2;
  0FD5 : 0000;
  0FD6 : FFF5;
  0FD7 : 000E;
  0FD8 : FFF4;
  0FD9 : FFEF;
  0FDA : FFFE;
  0FDB : 0018;
  0FDC : FFFD;
  0FDD : FFF3;
  0FDE : FFFB;
  0FDF : 0016;
  0FE0 : 000F;
  0FE1 : FFFD;
  0FE2 : FFFB;
  0FE3 : 0011;
  0FE4 : 0007;
  0FE5 : 000D;
  0FE6 : FFFC;
  0FE7 : 0004;
  0FE8 : FFFF;
  0FE9 : FFFD;
  0FEA : 0001;
  0FEB : 0005;
  0FEC : FFE9;
  0FED : FFFC;
  0FEE : 0004;
  0FEF : FFF2;
  0FF0 : FFFC;
  0FF1 : 000D;
  0FF2 : 0005;
  0FF3 : FFE6;
  0FF4 : FFE7;
  0FF5 : FFEA;
  0FF6 : FFFC;
  0FF7 : FFE7;
  0FF8 : FFE1;
  0FF9 : FFF6;
  0FFA : FFFE;
  0FFB : FFDF;
  0FFC : FFF1;
  0FFD : FFF9;
  0FFE : FFF3;
  0FFF : FFDC;
  1000 : 001A;
  1001 : 0023;
  1002 : 0004;
  1003 : FFF8;
  1004 : 000F;
  1005 : FFFC;
  1006 : 0014;
  1007 : 0001;
  1008 : 000B;
  1009 : 000E;
  100A : FFF2;
  100B : 0006;
  100C : 0008;
  100D : FFF2;
  100E : FFF3;
  100F : FFF5;
  1010 : FFF5;
  1011 : FFF6;
  1012 : FFFB;
  1013 : 0014;
  1014 : FFEA;
  1015 : FFFC;
  1016 : 0008;
  1017 : FFF7;
  1018 : FFE9;
  1019 : FFFC;
  101A : FFF9;
  101B : FFF2;
  101C : 0006;
  101D : 0002;
  101E : 0010;
  101F : FFF5;
  1020 : 0011;
  1021 : 0007;
  1022 : FFFB;
  1023 : 0011;
  1024 : FFF1;
  1025 : 0007;
  1026 : FFF6;
  1027 : FFF8;
  1028 : 0000;
  1029 : FFE4;
  102A : FFE7;
  102B : FFF5;
  102C : 0004;
  102D : FFE7;
  102E : FFF1;
  102F : FFF1;
  1030 : FFF7;
  1031 : FFFA;
  1032 : FFFD;
  1033 : 0017;
  1034 : FFFB;
  1035 : FFFE;
  1036 : 0024;
  1037 : FFFD;
  1038 : FFFC;
  1039 : 0010;
  103A : FFF5;
  103B : FFFA;
  103C : FFF3;
  103D : FFFA;
  103E : FFFB;
  103F : 000E;
  1040 : FFF6;
  1041 : 000B;
  1042 : 0014;
  1043 : FFFD;
  1044 : 0007;
  1045 : FFF4;
  1046 : FFF1;
  1047 : 0014;
  1048 : FFED;
  1049 : 0011;
  104A : 000A;
  104B : 0006;
  104C : 000E;
  104D : 0010;
  104E : 0006;
  104F : 0005;
  1050 : FFF9;
  1051 : FFED;
  1052 : 000B;
  1053 : 0018;
  1054 : 0018;
  1055 : 0009;
  1056 : FFFC;
  1057 : 0010;
  1058 : FFF6;
  1059 : 0002;
  105A : FFF6;
  105B : FFE9;
  105C : FFFC;
  105D : FFFC;
  105E : FFF4;
  105F : FFF4;
  1060 : FFF4;
  1061 : FFEE;
  1062 : FFD0;
  1063 : FFE1;
  1064 : FFF0;
  1065 : FFE2;
  1066 : FFD8;
  1067 : FFE3;
  1068 : FFF8;
  1069 : FFE7;
  106A : FFEB;
  106B : FFD9;
  106C : FFFE;
  106D : FFF5;
  106E : 0000;
  106F : 0003;
  1070 : 0005;
  1071 : FFEF;
  1072 : FFF1;
  1073 : 0001;
  1074 : FFEE;
  1075 : FFED;
  1076 : FFEF;
  1077 : FFF9;
  1078 : 000F;
  1079 : FFEE;
  107A : 0012;
  107B : 0004;
  107C : FFF1;
  107D : 0004;
  107E : 0005;
  107F : FFF1;
  1080 : 000D;
  1081 : 001C;
  1082 : 0005;
  1083 : FFFD;
  1084 : 0002;
  1085 : 000E;
  1086 : 001E;
  1087 : FFFF;
  1088 : 001B;
  1089 : 0015;
  108A : FFF8;
  108B : 000A;
  108C : FFFC;
  108D : 0006;
  108E : FFFC;
  108F : 0004;
  1090 : 0016;
  1091 : FFF6;
  1092 : 0005;
  1093 : 001B;
  1094 : FFFA;
  1095 : FFFE;
  1096 : FFF4;
  1097 : FFF8;
  1098 : FFF8;
  1099 : 0018;
  109A : FFF4;
  109B : 0005;
  109C : FFFE;
  109D : 000A;
  109E : FFFD;
  109F : 0006;
  10A0 : 0005;
  10A1 : FFE8;
  10A2 : 0001;
  10A3 : FFE6;
  10A4 : FFEE;
  10A5 : 0002;
  10A6 : FFE4;
  10A7 : FFE7;
  10A8 : 000D;
  10A9 : 0002;
  10AA : FFEC;
  10AB : FFEE;
  10AC : FFF1;
  10AD : FFF4;
  10AE : 000C;
  10AF : 000A;
  10B0 : FFEE;
  10B1 : 000E;
  10B2 : 0010;
  10B3 : FFF8;
  10B4 : FFFC;
  10B5 : 001C;
  10B6 : 0025;
  10B7 : 000A;
  10B8 : 001A;
  10B9 : FFF3;
  10BA : 0002;
  10BB : 0016;
  10BC : 0015;
  10BD : 0005;
  10BE : 0007;
  10BF : FFEC;
  10C0 : FFE4;
  10C1 : FFE1;
  10C2 : FFE9;
  10C3 : 0005;
  10C4 : FFF5;
  10C5 : FFF0;
  10C6 : FFEE;
  10C7 : 0003;
  10C8 : FFF9;
  10C9 : 000F;
  10CA : FFF5;
  10CB : 001E;
  10CC : 0011;
  10CD : 000D;
  10CE : 0008;
  10CF : FFF5;
  10D0 : 0015;
  10D1 : 000C;
  10D2 : 000D;
  10D3 : FFFE;
  10D4 : FFF7;
  10D5 : FFF8;
  10D6 : 0005;
  10D7 : FFF8;
  10D8 : FFFA;
  10D9 : 0011;
  10DA : FFEF;
  10DB : 0006;
  10DC : 000F;
  10DD : FFF2;
  10DE : FFEF;
  10DF : FFFB;
  10E0 : FFF7;
  10E1 : FFF5;
  10E2 : 0002;
  10E3 : 0011;
  10E4 : 0003;
  10E5 : 0014;
  10E6 : 000D;
  10E7 : 000A;
  10E8 : 001C;
  10E9 : 000D;
  10EA : FFF1;
  10EB : 001B;
  10EC : 0009;
  10ED : 001C;
  10EE : FFF9;
  10EF : 000A;
  10F0 : 0010;
  10F1 : 0017;
  10F2 : 000F;
  10F3 : FFF6;
  10F4 : 000F;
  10F5 : FFFB;
  10F6 : 000E;
  10F7 : 0007;
  10F8 : FFF2;
  10F9 : FFEB;
  10FA : 0014;
  10FB : FFEA;
  10FC : FFE9;
  10FD : 000D;
  10FE : FFE3;
  10FF : 000A;
  1100 : 0001;
  1101 : FFF2;
  1102 : FFFF;
  1103 : FFFC;
  1104 : 0004;
  1105 : 000D;
  1106 : 000A;
  1107 : FFE1;
  1108 : FFF9;
  1109 : FFF1;
  110A : FFF8;
  110B : FFFD;
  110C : 0003;
  110D : FFF1;
  110E : 0004;
  110F : 0001;
  1110 : FFF8;
  1111 : FFE8;
  1112 : 000D;
  1113 : FFFA;
  1114 : FFF2;
  1115 : 0006;
  1116 : FFE8;
  1117 : FFF9;
  1118 : FFE9;
  1119 : FFF9;
  111A : FFFF;
  111B : FFE8;
  111C : FFE4;
  111D : FFE2;
  111E : 000B;
  111F : 0002;
  1120 : FFF4;
  1121 : FFF5;
  1122 : 0002;
  1123 : FFE0;
  1124 : FFEE;
  1125 : FFEF;
  1126 : FFE1;
  1127 : 0003;
  1128 : FFE9;
  1129 : FFEE;
  112A : FFFB;
  112B : 0006;
  112C : 000D;
  112D : FFF1;
  112E : 0001;
  112F : FFF9;
  1130 : 0011;
  1131 : FFF8;
  1132 : 0004;
  1133 : 0010;
  1134 : 0009;
  1135 : 0020;
  1136 : 001F;
  1137 : 0007;
  1138 : 0012;
  1139 : 0003;
  113A : FFF6;
  113B : FFFD;
  113C : FFEE;
  113D : FFF4;
  113E : 0008;
  113F : 0004;
  1140 : FFFA;
  1141 : FFFB;
  1142 : FFFD;
  1143 : FFF5;
  1144 : 000A;
  1145 : 000C;
  1146 : 0016;
  1147 : FFF5;
  1148 : 0014;
  1149 : FFF9;
  114A : 0000;
  114B : FFF5;
  114C : 0011;
  114D : FFED;
  114E : FFF1;
  114F : 0001;
  1150 : 0016;
  1151 : 001F;
  1152 : 0003;
  1153 : 001F;
  1154 : 0010;
  1155 : 0021;
  1156 : 0007;
  1157 : 0019;
  1158 : 001F;
  1159 : 0016;
  115A : 0007;
  115B : 0010;
  115C : 0007;
  115D : 0002;
  115E : FFFA;
  115F : 000E;
  1160 : 0012;
  1161 : FFF6;
  1162 : FFFA;
  1163 : 000C;
  1164 : FFFD;
  1165 : FFFD;
  1166 : 0007;
  1167 : FFEE;
  1168 : FFF0;
  1169 : FFF3;
  116A : 0005;
  116B : 0010;
  116C : FFF3;
  116D : 0010;
  116E : FFF1;
  116F : FFF0;
  1170 : 000B;
  1171 : 0019;
  1172 : FFEF;
  1173 : 000E;
  1174 : 0013;
  1175 : FFF9;
  1176 : 0016;
  1177 : 0015;
  1178 : FFED;
  1179 : FFFC;
  117A : 0003;
  117B : FFF3;
  117C : FFFC;
  117D : FFFF;
  117E : 000F;
  117F : 0013;
  1180 : FFFE;
  1181 : 0009;
  1182 : 000D;
  1183 : 0010;
  1184 : 0004;
  1185 : 0013;
  1186 : 0002;
  1187 : FFF5;
  1188 : 0001;
  1189 : 0007;
  118A : 0000;
  118B : 0008;
  118C : FFED;
  118D : 0005;
  118E : FFFA;
  118F : FFF1;
  1190 : 0002;
  1191 : 000D;
  1192 : FFFB;
  1193 : 0004;
  1194 : 0005;
  1195 : FFF9;
  1196 : 0010;
  1197 : FFF6;
  1198 : 0013;
  1199 : 0014;
  119A : FFE8;
  119B : FFE9;
  119C : 0005;
  119D : FFE6;
  119E : FFE4;
  119F : 0001;
  11A0 : 0010;
  11A1 : FFF0;
  11A2 : FFF3;
  11A3 : FFF8;
  11A4 : FFEB;
  11A5 : 0007;
  11A6 : 000B;
  11A7 : 0002;
  11A8 : 000F;
  11A9 : 0009;
  11AA : 0013;
  11AB : 0009;
  11AC : 0016;
  11AD : 0016;
  11AE : 0014;
  11AF : 001D;
  11B0 : FFF8;
  11B1 : 001C;
  11B2 : FFFB;
  11B3 : 001D;
  11B4 : 000C;
  11B5 : 0021;
  11B6 : 0010;
  11B7 : 001D;
  11B8 : 0002;
  11B9 : FFFA;
  11BA : 0009;
  11BB : FFF7;
  11BC : 001C;
  11BD : 0019;
  11BE : 0013;
  11BF : 000C;
  11C0 : FFEF;
  11C1 : FFFD;
  11C2 : FFFF;
  11C3 : FFFF;
  11C4 : FFE8;
  11C5 : 0007;
  11C6 : FFF5;
  11C7 : 000E;
  11C8 : FFEC;
  11C9 : FFFA;
  11CA : 0005;
  11CB : 0004;
  11CC : 000C;
  11CD : 000E;
  11CE : 0008;
  11CF : FFE3;
  11D0 : FFFE;
  11D1 : 0000;
  11D2 : FFE8;
  11D3 : FFEF;
  11D4 : 0006;
  11D5 : 0004;
  11D6 : FFE6;
  11D7 : FFEF;
  11D8 : FFF3;
  11D9 : 000B;
  11DA : 0008;
  11DB : 0009;
  11DC : FFFE;
  11DD : 000C;
  11DE : FFF1;
  11DF : FFE8;
  11E0 : 0004;
  11E1 : 000A;
  11E2 : FFEC;
  11E3 : FFEE;
  11E4 : 0000;
  11E5 : FFEF;
  11E6 : 0011;
  11E7 : 0000;
  11E8 : FFF3;
  11E9 : 0004;
  11EA : FFF5;
  11EB : FFFF;
  11EC : 0009;
  11ED : FFFB;
  11EE : 0007;
  11EF : FFFE;
  11F0 : 0015;
  11F1 : 001E;
  11F2 : 0006;
  11F3 : 000A;
  11F4 : 001E;
  11F5 : 0017;
  11F6 : FFF4;
  11F7 : 0001;
  11F8 : FFF9;
  11F9 : 0011;
  11FA : 0010;
  11FB : 0000;
  11FC : 0005;
  11FD : FFFF;
  11FE : FFF5;
  11FF : FFF5;
  1200 : FFFC;
  1201 : 000C;
  1202 : FFFF;
  1203 : 0010;
  1204 : 0018;
  1205 : FFF3;
  1206 : 001B;
  1207 : FFF0;
  1208 : FFFD;
  1209 : 0013;
  120A : FFF0;
  120B : FFF6;
  120C : 000F;
  120D : 001B;
  120E : FFFE;
  120F : 0019;
  1210 : 0013;
  1211 : 0006;
  1212 : 000F;
  1213 : FFFD;
  1214 : FFFA;
  1215 : 0011;
  1216 : FFEB;
  1217 : FFFD;
  1218 : FFE7;
  1219 : 000B;
  121A : FFF3;
  121B : 0005;
  121C : 0003;
  121D : FFFF;
  121E : 0013;
  121F : 0009;
  1220 : 0009;
  1221 : 0007;
  1222 : FFE9;
  1223 : FFE7;
  1224 : FFF2;
  1225 : 000B;
  1226 : FFFC;
  1227 : FFF3;
  1228 : 000E;
  1229 : 0005;
  122A : FFF8;
  122B : FFF0;
  122C : 000B;
  122D : 0007;
  122E : FFF9;
  122F : FFF5;
  1230 : 0008;
  1231 : 0012;
  1232 : FFEB;
  1233 : FFF6;
  1234 : 000A;
  1235 : 0009;
  1236 : 0012;
  1237 : 0013;
  1238 : FFF1;
  1239 : 0016;
  123A : 0011;
  123B : FFF8;
  123C : 001A;
  123D : 0000;
  123E : FFFA;
  123F : FFF0;
  1240 : 001E;
  1241 : 0013;
  1242 : 0017;
  1243 : FFFA;
  1244 : FFEE;
  1245 : FFEF;
  1246 : FFE9;
  1247 : 000D;
  1248 : FFF1;
  1249 : 0009;
  124A : 001A;
  124B : FFF7;
  124C : 0021;
  124D : 0004;
  124E : FFFD;
  124F : FFFE;
  1250 : FFFA;
  1251 : FFEF;
  1252 : FFFF;
  1253 : 0007;
  1254 : FFE7;
  1255 : 0001;
  1256 : FFE2;
  1257 : 0001;
  1258 : 000C;
  1259 : 0003;
  125A : FFE9;
  125B : FFDF;
  125C : FFEB;
  125D : FFFF;
  125E : FFF9;
  125F : FFFA;
  1260 : 0000;
  1261 : FFF1;
  1262 : FFF2;
  1263 : FFFD;
  1264 : FFE7;
  1265 : 0002;
  1266 : FFFE;
  1267 : FFFD;
  1268 : 0008;
  1269 : FFF4;
  126A : FFEE;
  126B : 000E;
  126C : 0001;
  126D : FFF3;
  126E : 0008;
  126F : 000A;
  1270 : FFF6;
  1271 : FFF1;
  1272 : FFFA;
  1273 : 0014;
  1274 : FFF5;
  1275 : 0010;
  1276 : 0005;
  1277 : 0016;
  1278 : FFFB;
  1279 : FFFE;
  127A : 0006;
  127B : 0016;
  127C : 0001;
  127D : FFF1;
  127E : 000E;
  127F : 0016;
  1280 : FFF7;
  1281 : 0003;
  1282 : FFF1;
  1283 : 0001;
  1284 : 0003;
  1285 : FFF8;
  1286 : FFF0;
  1287 : FFF7;
  1288 : FFE5;
  1289 : FFF7;
  128A : 000C;
  128B : FFE4;
  128C : FFFE;
  128D : 0006;
  128E : 0001;
  128F : FFEF;
  1290 : FFDB;
  1291 : FFDF;
  1292 : FFFE;
  1293 : FFF4;
  1294 : FFE6;
  1295 : 0005;
  1296 : FFFA;
  1297 : FFE0;
  1298 : FFE4;
  1299 : FFDF;
  129A : FFED;
  129B : FFEF;
  129C : FFFA;
  129D : FFFB;
  129E : FFE9;
  129F : FFF3;
  12A0 : FFEB;
  12A1 : 000F;
  12A2 : FFEE;
  12A3 : FFF3;
  12A4 : FFFF;
  12A5 : FFF4;
  12A6 : FFE9;
  12A7 : 0003;
  12A8 : FFFE;
  12A9 : 0006;
  12AA : 0011;
  12AB : 0003;
  12AC : 0019;
  12AD : 0015;
  12AE : 0010;
  12AF : 0028;
  12B0 : 0018;
  12B1 : 0002;
  12B2 : 0021;
  12B3 : 0001;
  12B4 : FFFD;
  12B5 : 000B;
  12B6 : FFF8;
  12B7 : 0000;
  12B8 : 000A;
  12B9 : 0016;
  12BA : FFF5;
  12BB : 0009;
  12BC : 0010;
  12BD : 0004;
  12BE : FFFE;
  12BF : FFF1;
  12C0 : 0010;
  12C1 : FFFC;
  12C2 : 0007;
  12C3 : 000C;
  12C4 : 0000;
  12C5 : 0013;
  12C6 : FFF2;
  12C7 : FFF3;
  12C8 : FFE5;
  12C9 : FFFF;
  12CA : FFF7;
  12CB : FFF3;
  12CC : FFF9;
  12CD : FFEF;
  12CE : FFF5;
  12CF : 000E;
  12D0 : FFE7;
  12D1 : 000D;
  12D2 : 000C;
  12D3 : 000A;
  12D4 : FFEF;
  12D5 : 0006;
  12D6 : FFF0;
  12D7 : 0010;
  12D8 : FFF7;
  12D9 : FFF7;
  12DA : FFF9;
  12DB : 0012;
  12DC : 0006;
  12DD : 000D;
  12DE : FFF9;
  12DF : 0008;
  12E0 : 001A;
  12E1 : 000D;
  12E2 : FFF2;
  12E3 : 0018;
  12E4 : FFFD;
  12E5 : 0001;
  12E6 : 000E;
  12E7 : FFF6;
  12E8 : FFFF;
  12E9 : 0018;
  12EA : 0000;
  12EB : FFF2;
  12EC : 0010;
  12ED : 0016;
  12EE : 0013;
  12EF : FFEB;
  12F0 : 0009;
  12F1 : 0013;
  12F2 : 000D;
  12F3 : 0003;
  12F4 : 0005;
  12F5 : FFF5;
  12F6 : 0012;
  12F7 : FFFD;
  12F8 : FFF2;
  12F9 : 000F;
  12FA : 0014;
  12FB : FFF0;
  12FC : 0004;
  12FD : FFFD;
  12FE : FFE8;
  12FF : 0005;
  1300 : 000D;
  1301 : FFFB;
  1302 : FFF8;
  1303 : 000D;
  1304 : 0013;
  1305 : 0006;
  1306 : FFFF;
  1307 : FFEC;
  1308 : 000C;
  1309 : FFF7;
  130A : 0011;
  130B : FFEF;
  130C : FFFD;
  130D : FFEE;
  130E : 000A;
  130F : 000F;
  1310 : FFF0;
  1311 : FFEF;
  1312 : FFED;
  1313 : 000D;
  1314 : 000C;
  1315 : 0005;
  1316 : FFF3;
  1317 : 0001;
  1318 : FFEE;
  1319 : FFEA;
  131A : FFEB;
  131B : FFF7;
  131C : 0002;
  131D : 000B;
  131E : 0009;
  131F : 0005;
  1320 : FFEE;
  1321 : 0015;
  1322 : 000D;
  1323 : FFF2;
  1324 : 0017;
  1325 : 0008;
  1326 : 0016;
  1327 : 0009;
  1328 : FFF4;
  1329 : 0007;
  132A : FFF2;
  132B : 0003;
  132C : FFF6;
  132D : 0016;
  132E : FFFD;
  132F : FFFA;
  1330 : 0012;
  1331 : 000F;
  1332 : 001A;
  1333 : FFF3;
  1334 : 000D;
  1335 : FFED;
  1336 : FFFE;
  1337 : 0007;
  1338 : FFF6;
  1339 : 0000;
  133A : FFFD;
  133B : FFF0;
  133C : 0008;
  133D : 0015;
  133E : 0006;
  133F : FFF0;
  1340 : FFFC;
  1341 : FFF6;
  1342 : FFF7;
  1343 : 0015;
  1344 : 0017;
  1345 : 000A;
  1346 : FFFD;
  1347 : FFEF;
  1348 : 0007;
  1349 : FFEE;
  134A : FFE8;
  134B : 0007;
  134C : FFED;
  134D : 000F;
  134E : 000F;
  134F : 0017;
  1350 : FFF6;
  1351 : 000C;
  1352 : 0014;
  1353 : 000E;
  1354 : FFE9;
  1355 : FFED;
  1356 : FFFE;
  1357 : 001D;
  1358 : 0017;
  1359 : 000E;
  135A : 0014;
  135B : 000D;
  135C : 0012;
  135D : FFF6;
  135E : FFF6;
  135F : 0017;
  1360 : 0012;
  1361 : 0012;
  1362 : 0013;
  1363 : FFFC;
  1364 : 0016;
  1365 : 0009;
  1366 : FFED;
  1367 : 000E;
  1368 : FFFC;
  1369 : 0012;
  136A : FFEC;
  136B : FFF1;
  136C : 000C;
  136D : 0002;
  136E : FFE9;
  136F : FFEC;
  1370 : 0010;
  1371 : FFEE;
  1372 : FFF8;
  1373 : FFF5;
  1374 : FFF3;
  1375 : FFF0;
  1376 : 0000;
  1377 : FFEC;
  1378 : FFE8;
  1379 : 000A;
  137A : FFF0;
  137B : FFE3;
  137C : FFEB;
  137D : FFE2;
  137E : 0007;
  137F : FFFE;
  1380 : FFF0;
  1381 : 0005;
  1382 : FFFB;
  1383 : FFF1;
  1384 : 0000;
  1385 : 0009;
  1386 : FFEB;
  1387 : 0012;
  1388 : 0001;
  1389 : 000B;
  138A : 000A;
  138B : FFF3;
  138C : FFF0;
  138D : 000D;
  138E : 0011;
  138F : 0001;
  1390 : FFF4;
  1391 : 000E;
  1392 : 0015;
  1393 : 000E;
  1394 : 000B;
  1395 : 0016;
  1396 : 001F;
  1397 : FFF4;
  1398 : 001C;
  1399 : 0020;
  139A : FFFA;
  139B : 001B;
  139C : FFFD;
  139D : FFFB;
  139E : 0001;
  139F : 0004;
  13A0 : 001F;
  13A1 : 0002;
  13A2 : 0005;
  13A3 : 0012;
  13A4 : 0016;
  13A5 : 001C;
  13A6 : 0000;
  13A7 : 0001;
  13A8 : 0004;
  13A9 : 0018;
  13AA : 0015;
  13AB : FFEF;
  13AC : 0009;
  13AD : FFFB;
  13AE : 0018;
  13AF : 000A;
  13B0 : 0004;
  13B1 : 0002;
  13B2 : 0007;
  13B3 : 000C;
  13B4 : FFE2;
  13B5 : 0001;
  13B6 : FFEC;
  13B7 : FFF7;
  13B8 : FFE4;
  13B9 : FFF9;
  13BA : 0009;
  13BB : 0012;
  13BC : 000A;
  13BD : 0000;
  13BE : FFFC;
  13BF : FFFB;
  13C0 : 000E;
  13C1 : 001C;
  13C2 : 0018;
  13C3 : FFF0;
  13C4 : FFEB;
  13C5 : 0009;
  13C6 : FFF4;
  13C7 : FFF4;
  13C8 : FFF5;
  13C9 : FFF4;
  13CA : 0005;
  13CB : FFF6;
  13CC : 0013;
  13CD : 000A;
  13CE : FFFA;
  13CF : FFEF;
  13D0 : FFE9;
  13D1 : 000F;
  13D2 : FFEF;
  13D3 : 0009;
  13D4 : FFEC;
  13D5 : FFF0;
  13D6 : FFD8;
  13D7 : FFF8;
  13D8 : FFF5;
  13D9 : FFE2;
  13DA : FFFD;
  13DB : FFEC;
  13DC : FFE6;
  13DD : 0000;
  13DE : FFF5;
  13DF : FFEE;
  13E0 : 0011;
  13E1 : FFF0;
  13E2 : 0006;
  13E3 : FFF5;
  13E4 : 0015;
  13E5 : FFFA;
  13E6 : FFEA;
  13E7 : FFF5;
  13E8 : FFF5;
  13E9 : FFF0;
  13EA : FFFC;
  13EB : FFF0;
  13EC : FFF5;
  13ED : FFFC;
  13EE : 0006;
  13EF : FFFE;
  13F0 : 000B;
  13F1 : 0011;
  13F2 : FFEC;
  13F3 : 0008;
  13F4 : 000B;
  13F5 : FFE6;
  13F6 : FFF6;
  13F7 : FFF6;
  13F8 : 0001;
  13F9 : 0011;
  13FA : 000B;
  13FB : 000A;
  13FC : FFEF;
  13FD : FFF7;
  13FE : 0015;
  13FF : FFF5;
  1400 : FFF9;
  1401 : FFF4;
  1402 : FFED;
  1403 : FFEF;
  1404 : 0007;
  1405 : FFF8;
  1406 : 000C;
  1407 : FFF0;
  1408 : 000B;
  1409 : FFFD;
  140A : 000C;
  140B : 0001;
  140C : 000D;
  140D : FFFE;
  140E : 000E;
  140F : FFFA;
  1410 : FFF4;
  1411 : 0011;
  1412 : FFF4;
  1413 : FFF3;
  1414 : 0001;
  1415 : FFFE;
  1416 : 0015;
  1417 : 001A;
  1418 : FFFA;
  1419 : 0010;
  141A : FFFF;
  141B : 000A;
  141C : FFFE;
  141D : 0011;
  141E : 0015;
  141F : 0014;
  1420 : 0007;
  1421 : 0008;
  1422 : FFFF;
  1423 : 0001;
  1424 : FFF0;
  1425 : FFEC;
  1426 : 0014;
  1427 : 0013;
  1428 : FFFA;
  1429 : FFEF;
  142A : 0005;
  142B : 0001;
  142C : FFFE;
  142D : 0015;
  142E : 0008;
  142F : FFF6;
  1430 : FFFF;
  1431 : 0001;
  1432 : 000C;
  1433 : 0013;
  1434 : FFF7;
  1435 : FFEE;
  1436 : FFEB;
  1437 : 0002;
  1438 : FFF0;
  1439 : 0006;
  143A : 0001;
  143B : 0003;
  143C : 001D;
  143D : 0021;
  143E : FFF8;
  143F : 0018;
  1440 : FFF3;
  1441 : 000F;
  1442 : 000E;
  1443 : 0009;
  1444 : 000C;
  1445 : FFFD;
  1446 : FFF1;
  1447 : FFEE;
  1448 : 0003;
  1449 : 0018;
  144A : 0012;
  144B : 0023;
  144C : 001B;
  144D : FFFC;
  144E : 0005;
  144F : FFE9;
  1450 : FFE5;
  1451 : FFF9;
  1452 : FFFB;
  1453 : FFE9;
  1454 : FFF4;
  1455 : FFED;
  1456 : FFE3;
  1457 : 0000;
  1458 : FFEE;
  1459 : FFFA;
  145A : 000A;
  145B : 000B;
  145C : 000B;
  145D : 0019;
  145E : 000F;
  145F : 001D;
  1460 : 001E;
  1461 : FFFE;
  1462 : FFF4;
  1463 : FFFD;
  1464 : FFE9;
  1465 : FFF2;
  1466 : 0007;
  1467 : 0007;
  1468 : 0006;
  1469 : FFF4;
  146A : FFF4;
  146B : FFFB;
  146C : FFED;
  146D : 000B;
  146E : FFEB;
  146F : FFED;
  1470 : FFED;
  1471 : FFF5;
  1472 : 000E;
  1473 : 000D;
  1474 : FFF8;
  1475 : FFF9;
  1476 : FFE4;
  1477 : 0009;
  1478 : 000C;
  1479 : 0004;
  147A : FFF0;
  147B : 0007;
  147C : 0004;
  147D : FFE4;
  147E : FFE0;
  147F : FFF8;
  1480 : 0005;
  1481 : FFEA;
  1482 : 0004;
  1483 : 0003;
  1484 : FFE7;
  1485 : FFEF;
  1486 : FFF0;
  1487 : 0012;
  1488 : FFF6;
  1489 : FFED;
  148A : FFEE;
  148B : FFE5;
  148C : FFFD;
  148D : FFF0;
  148E : FFF4;
  148F : FFF5;
  1490 : 0003;
  1491 : FFE8;
  1492 : 000E;
  1493 : 0000;
  1494 : 000E;
  1495 : FFF5;
  1496 : 0006;
  1497 : 0007;
  1498 : FFF1;
  1499 : 0005;
  149A : FFEF;
  149B : 000A;
  149C : FFFA;
  149D : FFFF;
  149E : 0011;
  149F : FFF5;
  14A0 : 0011;
  14A1 : FFFD;
  14A2 : 0005;
  14A3 : FFF3;
  14A4 : FFF8;
  14A5 : 000B;
  14A6 : 0012;
  14A7 : 0006;
  14A8 : 000C;
  14A9 : 0019;
  14AA : 0014;
  14AB : FFF6;
  14AC : 001F;
  14AD : 000C;
  14AE : 000B;
  14AF : 0017;
  14B0 : 001B;
  14B1 : 0004;
  14B2 : 001E;
  14B3 : 0012;
  14B4 : 000B;
  14B5 : 0000;
  14B6 : FFFD;
  14B7 : FFF9;
  14B8 : 0002;
  14B9 : FFE6;
  14BA : FFF8;
  14BB : FFF3;
  14BC : 000D;
  14BD : FFF4;
  14BE : FFFB;
  14BF : 0001;
  14C0 : FFEE;
  14C1 : FFE9;
  14C2 : 0004;
  14C3 : FFEF;
  14C4 : FFE7;
  14C5 : FFF1;
  14C6 : 000F;
  14C7 : FFF0;
  14C8 : 0001;
  14C9 : 000B;
  14CA : FFE4;
  14CB : 0003;
  14CC : FFE6;
  14CD : 0003;
  14CE : FFE3;
  14CF : FFF8;
  14D0 : FFF9;
  14D1 : FFF1;
  14D2 : 0002;
  14D3 : FFEE;
  14D4 : FFF5;
  14D5 : 0003;
  14D6 : 000C;
  14D7 : FFFD;
  14D8 : 000C;
  14D9 : FFEC;
  14DA : FFF7;
  14DB : 0009;
  14DC : 000B;
  14DD : FFF8;
  14DE : FFF6;
  14DF : 0004;
  14E0 : 0015;
  14E1 : FFFB;
  14E2 : 0014;
  14E3 : FFF8;
  14E4 : 0000;
  14E5 : FFEE;
  14E6 : FFF7;
  14E7 : FFF4;
  14E8 : 0014;
  14E9 : 0000;
  14EA : FFEC;
  14EB : 0009;
  14EC : 0015;
  14ED : 0004;
  14EE : 0015;
  14EF : 0014;
  14F0 : FFF0;
  14F1 : FFEF;
  14F2 : 0008;
  14F3 : 0007;
  14F4 : 0009;
  14F5 : 000A;
  14F6 : FFF6;
  14F7 : FFFA;
  14F8 : 0013;
  14F9 : 000E;
  14FA : 0003;
  14FB : FFF9;
  14FC : FFF3;
  14FD : 0001;
  14FE : 000C;
  14FF : FFED;
  1500 : 0007;
  1501 : FFFF;
  1502 : 0012;
  1503 : FFF5;
  1504 : FFFA;
  1505 : FFF5;
  1506 : 0006;
  1507 : 0013;
  1508 : 0015;
  1509 : 000E;
  150A : FFF9;
  150B : 0009;
  150C : 000D;
  150D : FFED;
  150E : 0009;
  150F : 000C;
  1510 : 000D;
  1511 : 0007;
  1512 : 0012;
  1513 : 0006;
  1514 : FFF6;
  1515 : FFEF;
  1516 : FFFC;
  1517 : 000C;
  1518 : 0000;
  1519 : 0016;
  151A : 000A;
  151B : FFFD;
  151C : 0014;
  151D : 000C;
  151E : FFFB;
  151F : 0001;
  1520 : 000C;
  1521 : FFF2;
  1522 : FFFA;
  1523 : 0001;
  1524 : FFF0;
  1525 : 0012;
  1526 : FFFD;
  1527 : 0004;
  1528 : FFEF;
  1529 : FFF6;
  152A : FFF7;
  152B : FFDC;
  152C : FFF8;
  152D : FFEC;
  152E : FFF3;
  152F : FFFD;
  1530 : 0005;
  1531 : FFF6;
  1532 : FFF9;
  1533 : 0010;
  1534 : FFF0;
  1535 : FFFC;
  1536 : 0013;
  1537 : 0010;
  1538 : FFF9;
  1539 : 0013;
  153A : 000F;
  153B : 001B;
  153C : FFF7;
  153D : 000B;
  153E : FFE6;
  153F : FFFA;
  1540 : 0010;
  1541 : 0001;
  1542 : 0006;
  1543 : 0006;
  1544 : FFF6;
  1545 : FFEB;
  1546 : FFE9;
  1547 : FFE7;
  1548 : FFE6;
  1549 : FFE8;
  154A : FFEE;
  154B : FFEA;
  154C : FFEE;
  154D : 0008;
  154E : FFF9;
  154F : FFEC;
  1550 : 0001;
  1551 : FFFB;
  1552 : FFF4;
  1553 : 0001;
  1554 : 000B;
  1555 : 0008;
  1556 : FFF3;
  1557 : 0014;
  1558 : 0019;
  1559 : 0008;
  155A : 0005;
  155B : 0017;
  155C : 0006;
  155D : 0009;
  155E : 0006;
  155F : 0000;
  1560 : 0003;
  1561 : FFFF;
  1562 : 0006;
  1563 : 0016;
  1564 : 000A;
  1565 : 0017;
  1566 : FFF7;
  1567 : FFEC;
  1568 : 0005;
  1569 : FFFF;
  156A : FFF8;
  156B : 0004;
  156C : FFF5;
  156D : FFFB;
  156E : 0006;
  156F : FFEB;
  1570 : FFF8;
  1571 : FFF5;
  1572 : FFF5;
  1573 : 0000;
  1574 : 0002;
  1575 : 000A;
  1576 : 0003;
  1577 : 0014;
  1578 : 0012;
  1579 : FFED;
  157A : 000F;
  157B : FFFC;
  157C : 0013;
  157D : FFFF;
  157E : 0011;
  157F : 000E;
  1580 : FFE9;
  1581 : FFF0;
  1582 : FFF0;
  1583 : 0002;
  1584 : FFE8;
  1585 : FFFE;
  1586 : FFEE;
  1587 : FFF4;
  1588 : FFFD;
  1589 : FFF6;
  158A : FFEC;
  158B : 0002;
  158C : 0005;
  158D : FFE6;
  158E : FFE3;
  158F : FFF8;
  1590 : 0006;
  1591 : 0006;
  1592 : FFE2;
  1593 : 0004;
  1594 : FFE5;
  1595 : 000A;
  1596 : FFEF;
  1597 : FFED;
  1598 : FFF4;
  1599 : FFF0;
  159A : FFFB;
  159B : 000A;
  159C : 000F;
  159D : FFE8;
  159E : FFF1;
  159F : 000F;
  15A0 : 0006;
  15A1 : 000F;
  15A2 : FFED;
  15A3 : FFFC;
  15A4 : 0012;
  15A5 : FFFA;
  15A6 : 0012;
  15A7 : 0005;
  15A8 : FFF7;
  15A9 : 0014;
  15AA : FFF2;
  15AB : 0014;
  15AC : 0013;
  15AD : 0014;
  15AE : FFFB;
  15AF : FFF1;
  15B0 : 0006;
  15B1 : FFF0;
  15B2 : 000F;
  15B3 : 0001;
  15B4 : 0009;
  15B5 : 0009;
  15B6 : 0002;
  15B7 : 0010;
  15B8 : FFFF;
  15B9 : 001B;
  15BA : FFF6;
  15BB : 0016;
  15BC : 000A;
  15BD : FFFB;
  15BE : FFF7;
  15BF : 0021;
  15C0 : FFFC;
  15C1 : 001D;
  15C2 : 0003;
  15C3 : 0009;
  15C4 : 0018;
  15C5 : FFFE;
  15C6 : FFFF;
  15C7 : FFF0;
  15C8 : 0009;
  15C9 : FFEE;
  15CA : FFFB;
  15CB : 000D;
  15CC : 0008;
  15CD : FFF1;
  15CE : FFEE;
  15CF : FFED;
  15D0 : 0014;
  15D1 : 0002;
  15D2 : 0015;
  15D3 : 0003;
  15D4 : FFEB;
  15D5 : FFEF;
  15D6 : 000D;
  15D7 : 0001;
  15D8 : FFE4;
  15D9 : 0003;
  15DA : 0006;
  15DB : 0006;
  15DC : FFF8;
  15DD : FFF1;
  15DE : 0015;
  15DF : 001C;
  15E0 : 000F;
  15E1 : FFF7;
  15E2 : 0014;
  15E3 : 0004;
  15E4 : 000A;
  15E5 : 001B;
  15E6 : 0013;
  15E7 : FFF3;
  15E8 : 0006;
  15E9 : FFFA;
  15EA : 0005;
  15EB : 000F;
  15EC : 0006;
  15ED : FFF6;
  15EE : FFF3;
  15EF : 0000;
  15F0 : FFF7;
  15F1 : 0015;
  15F2 : 0005;
  15F3 : 0019;
  15F4 : FFF4;
  15F5 : 000F;
  15F6 : 000B;
  15F7 : FFF5;
  15F8 : 0010;
  15F9 : FFFB;
  15FA : 000A;
  15FB : 0011;
  15FC : 0004;
  15FD : FFEF;
  15FE : 0014;
  15FF : 0004;
  1600 : 000F;
  1601 : 000C;
  1602 : 0009;
  1603 : FFFB;
  1604 : 0005;
  1605 : FFED;
  1606 : FFFD;
  1607 : 0002;
  1608 : FFEC;
  1609 : FFFC;
  160A : 000A;
  160B : 0012;
  160C : FFFD;
  160D : FFF0;
  160E : FFFC;
  160F : 0007;
  1610 : 000C;
  1611 : FFFE;
  1612 : 000E;
  1613 : 0008;
  1614 : FFF5;
  1615 : FFEE;
  1616 : 0004;
  1617 : 0016;
  1618 : 000B;
  1619 : 0002;
  161A : 0008;
  161B : FFFA;
  161C : 0003;
  161D : FFEC;
  161E : FFEF;
  161F : 0003;
  1620 : 0002;
  1621 : 000D;
  1622 : 0014;
  1623 : 0006;
  1624 : 0018;
  1625 : 000C;
  1626 : 0011;
  1627 : FFFF;
  1628 : 000A;
  1629 : 0012;
  162A : 000D;
  162B : FFFB;
  162C : 0007;
  162D : FFF3;
  162E : FFFA;
  162F : FFE8;
  1630 : 0000;
  1631 : 000F;
  1632 : FFF7;
  1633 : FFFF;
  1634 : FFF1;
  1635 : FFF3;
  1636 : 000B;
  1637 : 000F;
  1638 : 000D;
  1639 : FFF9;
  163A : 0015;
  163B : FFFD;
  163C : 0003;
  163D : 0001;
  163E : 000D;
  163F : FFE9;
  1640 : 000B;
  1641 : FFF4;
  1642 : FFE7;
  1643 : FFF1;
  1644 : 0012;
  1645 : 0012;
  1646 : 0005;
  1647 : 0009;
  1648 : FFFD;
  1649 : 0006;
  164A : 0014;
  164B : 000B;
  164C : 000A;
  164D : 000A;
  164E : 000F;
  164F : 0019;
  1650 : FFFF;
  1651 : FFF6;
  1652 : FFF9;
  1653 : 0013;
  1654 : 0011;
  1655 : 0014;
  1656 : 0013;
  1657 : 0016;
  1658 : 0005;
  1659 : 000A;
  165A : FFFA;
  165B : 000F;
  165C : 0021;
  165D : 0006;
  165E : 000E;
  165F : 001A;
  1660 : 0009;
  1661 : 0000;
  1662 : 001F;
  1663 : FFFE;
  1664 : 000E;
  1665 : FFF0;
  1666 : 0015;
  1667 : FFFD;
  1668 : 0002;
  1669 : FFF2;
  166A : 000A;
  166B : 0008;
  166C : FFFA;
  166D : 0004;
  166E : FFFC;
  166F : FFFC;
  1670 : FFE5;
  1671 : 000F;
  1672 : FFEC;
  1673 : FFE6;
  1674 : 000C;
  1675 : 000B;
  1676 : FFF6;
  1677 : 0004;
  1678 : 0006;
  1679 : FFF4;
  167A : 0013;
  167B : 0005;
  167C : 0010;
  167D : 0011;
  167E : 0010;
  167F : 001D;
  1680 : 0003;
  1681 : FFEB;
  1682 : FFFF;
  1683 : FFF3;
  1684 : 0007;
  1685 : 0003;
  1686 : FFF2;
  1687 : 0005;
  1688 : 0001;
  1689 : FFE5;
  168A : FFE7;
  168B : FFE8;
  168C : FFF1;
  168D : FFFA;
  168E : 000D;
  168F : FFE8;
  1690 : 0000;
  1691 : FFED;
  1692 : FFF1;
  1693 : FFEE;
  1694 : FFEA;
  1695 : FFF6;
  1696 : FFE7;
  1697 : 000B;
  1698 : FFE8;
  1699 : FFF0;
  169A : 0003;
  169B : FFFA;
  169C : FFE9;
  169D : 000A;
  169E : 000C;
  169F : FFF7;
  16A0 : 0010;
  16A1 : FFFD;
  16A2 : 000B;
  16A3 : 0003;
  16A4 : 0008;
  16A5 : FFE1;
  16A6 : FFEA;
  16A7 : FFE1;
  16A8 : FFE1;
  16A9 : FFF9;
  16AA : FFF3;
  16AB : FFF5;
  16AC : FFF3;
  16AD : FFFD;
  16AE : 0012;
  16AF : 0002;
  16B0 : 0001;
  16B1 : FFF1;
  16B2 : FFF2;
  16B3 : 000F;
  16B4 : 0010;
  16B5 : 0012;
  16B6 : FFF7;
  16B7 : 000C;
  16B8 : 001D;
  16B9 : 0008;
  16BA : FFF7;
  16BB : 000B;
  16BC : 0018;
  16BD : FFFF;
  16BE : FFF4;
  16BF : 0009;
  16C0 : FFF8;
  16C1 : 0006;
  16C2 : FFFC;
  16C3 : 000A;
  16C4 : 000A;
  16C5 : FFF2;
  16C6 : 0008;
  16C7 : FFEC;
  16C8 : FFEF;
  16C9 : 0013;
  16CA : 0007;
  16CB : 0010;
  16CC : FFFF;
  16CD : 000C;
  16CE : FFF4;
  16CF : FFFC;
  16D0 : FFFB;
  16D1 : 000D;
  16D2 : 0006;
  16D3 : FFFB;
  16D4 : 0017;
  16D5 : 0015;
  16D6 : 0022;
  16D7 : 0016;
  16D8 : 000A;
  16D9 : 0019;
  16DA : FFF6;
  16DB : 0003;
  16DC : FFFC;
  16DD : 000B;
  16DE : 0013;
  16DF : FFFD;
  16E0 : FFFD;
  16E1 : 000D;
  16E2 : 000D;
  16E3 : FFFD;
  16E4 : FFEB;
  16E5 : FFF6;
  16E6 : FFEC;
  16E7 : 0012;
  16E8 : 0005;
  16E9 : FFFB;
  16EA : FFEB;
  16EB : FFF4;
  16EC : 0000;
  16ED : 000B;
  16EE : 000C;
  16EF : 0008;
  16F0 : FFF5;
  16F1 : FFF9;
  16F2 : 0000;
  16F3 : 0001;
  16F4 : FFF9;
  16F5 : 0015;
  16F6 : FFF8;
  16F7 : FFFA;
  16F8 : FFF0;
  16F9 : 000B;
  16FA : FFEE;
  16FB : 0013;
  16FC : 0017;
  16FD : FFF8;
  16FE : 0010;
  16FF : 000B;
  1700 : FFF7;
  1701 : FFFE;
  1702 : 0014;
  1703 : 000C;
  1704 : FFFB;
  1705 : 0008;
  1706 : 0000;
  1707 : FFEB;
  1708 : FFEB;
  1709 : 0009;
  170A : 0007;
  170B : 0013;
  170C : 000D;
  170D : FFEC;
  170E : 0005;
  170F : FFED;
  1710 : FFF6;
  1711 : 0003;
  1712 : FFFD;
  1713 : 0005;
  1714 : 0006;
  1715 : 0010;
  1716 : 000C;
  1717 : 0006;
  1718 : FFEF;
  1719 : FFFC;
  171A : FFFE;
  171B : FFFD;
  171C : FFFF;
  171D : FFFB;
  171E : FFF6;
  171F : FFF9;
  1720 : FFEB;
  1721 : FFE9;
  1722 : 000B;
  1723 : 000B;
  1724 : 0007;
  1725 : 000E;
  1726 : FFF2;
  1727 : FFE8;
  1728 : FFF7;
  1729 : 0004;
  172A : FFFE;
  172B : 0006;
  172C : FFF2;
  172D : 0000;
  172E : FFF8;
  172F : FFF6;
  1730 : 000A;
  1731 : FFEB;
  1732 : 0005;
  1733 : 0013;
  1734 : FFF8;
  1735 : 001D;
  1736 : FFFB;
  1737 : FFFD;
  1738 : FFF4;
  1739 : 0001;
  173A : FFF6;
  173B : 0002;
  173C : 0000;
  173D : FFFE;
  173E : FFFD;
  173F : FFE1;
  1740 : FFEB;
  1741 : FFF4;
  1742 : FFFE;
  1743 : 001A;
  1744 : 0003;
  1745 : 001B;
  1746 : 0004;
  1747 : 0005;
  1748 : 0016;
  1749 : 0003;
  174A : 0000;
  174B : 0000;
  174C : 0006;
  174D : 0007;
  174E : FFF7;
  174F : FFFB;
  1750 : FFF6;
  1751 : FFFA;
  1752 : FFEC;
  1753 : FFF2;
  1754 : FFDC;
  1755 : FFF6;
  1756 : FFDD;
  1757 : 0003;
  1758 : FFE7;
  1759 : FFEE;
  175A : FFF8;
  175B : 0003;
  175C : 000F;
  175D : 0007;
  175E : FFF6;
  175F : 0008;
  1760 : 001A;
  1761 : 0010;
  1762 : 0006;
  1763 : FFF7;
  1764 : 0008;
  1765 : 0013;
  1766 : 000C;
  1767 : FFFB;
  1768 : 000E;
  1769 : 0006;
  176A : 0013;
  176B : FFF9;
  176C : 0004;
  176D : 0003;
  176E : 000A;
  176F : FFF6;
  1770 : FFFF;
  1771 : 001A;
  1772 : FFF4;
  1773 : FFFD;
  1774 : FFF7;
  1775 : 0000;
  1776 : 0002;
  1777 : FFF1;
  1778 : 0013;
  1779 : FFF1;
  177A : FFF6;
  177B : 0018;
  177C : 0016;
  177D : 0017;
  177E : 0007;
  177F : 001A;
  1780 : FFEE;
  1781 : FFE9;
  1782 : 000B;
  1783 : 0009;
  1784 : 0011;
  1785 : 0001;
  1786 : 000A;
  1787 : 000E;
  1788 : 000A;
  1789 : 000A;
  178A : FFF7;
  178B : FFEA;
  178C : 0002;
  178D : 0000;
  178E : 0003;
  178F : 0001;
  1790 : FFFB;
  1791 : 0014;
  1792 : 0012;
  1793 : 0004;
  1794 : 0008;
  1795 : 0014;
  1796 : FFEF;
  1797 : FFEE;
  1798 : FFF1;
  1799 : FFEE;
  179A : 000A;
  179B : FFFA;
  179C : FFFF;
  179D : 000A;
  179E : 000B;
  179F : 0004;
  17A0 : FFEB;
  17A1 : FFEB;
  17A2 : FFE8;
  17A3 : FFF3;
  17A4 : 000F;
  17A5 : 0003;
  17A6 : FFE8;
  17A7 : FFEB;
  17A8 : 000B;
  17A9 : 0009;
  17AA : 000E;
  17AB : FFEB;
  17AC : FFF4;
  17AD : FFF2;
  17AE : 000C;
  17AF : 0004;
  17B0 : FFE8;
  17B1 : 0007;
  17B2 : 0008;
  17B3 : FFF6;
  17B4 : 0014;
  17B5 : FFFC;
  17B6 : 000E;
  17B7 : 0013;
  17B8 : 0019;
  17B9 : 000C;
  17BA : 001D;
  17BB : FFFD;
  17BC : 0014;
  17BD : 001D;
  17BE : 0015;
  17BF : 000E;
  17C0 : FFF6;
  17C1 : 0017;
  17C2 : FFF3;
  17C3 : 000D;
  17C4 : 000C;
  17C5 : FFFF;
  17C6 : 0014;
  17C7 : FFF3;
  17C8 : 0012;
  17C9 : FFF6;
  17CA : FFFC;
  17CB : 0002;
  17CC : 0017;
  17CD : 0003;
  17CE : 000D;
  17CF : FFFE;
  17D0 : FFFF;
  17D1 : 0018;
  17D2 : FFF8;
  17D3 : 000C;
  17D4 : FFF5;
  17D5 : 0000;
  17D6 : 0005;
  17D7 : 001F;
  17D8 : 0018;
  17D9 : FFFD;
  17DA : 0003;
  17DB : FFF3;
  17DC : FFFB;
  17DD : 0006;
  17DE : 000E;
  17DF : 0011;
  17E0 : 000C;
  17E1 : FFF5;
  17E2 : 0011;
  17E3 : 0018;
  17E4 : FFEE;
  17E5 : FFEF;
  17E6 : 0000;
  17E7 : 0001;
  17E8 : 0006;
  17E9 : FFEA;
  17EA : 0013;
  17EB : FFED;
  17EC : FFF0;
  17ED : 0009;
  17EE : FFF7;
  17EF : FFE8;
  17F0 : 0012;
  17F1 : FFEC;
  17F2 : FFE8;
  17F3 : FFF5;
  17F4 : FFEE;
  17F5 : FFEB;
  17F6 : FFF7;
  17F7 : FFFF;
  17F8 : FFE9;
  17F9 : 0004;
  17FA : FFF3;
  17FB : FFEF;
  17FC : 0006;
  17FD : FFF6;
  17FE : 0000;
  17FF : FFE8;
  1800 : FFF5;
  1801 : FFF5;
  1802 : 0001;
  1803 : FFE1;
  1804 : FFF1;
  1805 : FFE2;
  1806 : FFF7;
  1807 : 0005;
  1808 : FFE7;
  1809 : 0007;
  180A : 0005;
  180B : FFF9;
  180C : FFEE;
  180D : 000A;
  180E : 000D;
  180F : FFEE;
  1810 : FFF4;
  1811 : FFEF;
  1812 : FFF1;
  1813 : 000D;
  1814 : 000B;
  1815 : FFEB;
  1816 : 0006;
  1817 : FFFA;
  1818 : FFF7;
  1819 : 0010;
  181A : 0008;
  181B : FFEB;
  181C : FFFD;
  181D : 0006;
  181E : FFF5;
  181F : 0015;
  1820 : FFF6;
  1821 : FFF5;
  1822 : FFF4;
  1823 : 0009;
  1824 : FFF5;
  1825 : 0019;
  1826 : FFFF;
  1827 : 0016;
  1828 : 0014;
  1829 : 000A;
  182A : FFFC;
  182B : FFFD;
  182C : 000D;
  182D : 0011;
  182E : 000F;
  182F : 0007;
  1830 : FFF3;
  1831 : FFFD;
  1832 : FFFF;
  1833 : FFE3;
  1834 : 0008;
  1835 : 0008;
  1836 : FFFB;
  1837 : FFEA;
  1838 : FFF6;
  1839 : FFE9;
  183A : 000B;
  183B : FFED;
  183C : FFE9;
  183D : FFF9;
  183E : 0011;
  183F : 000D;
  1840 : FFE4;
  1841 : FFF4;
  1842 : 0007;
  1843 : FFEC;
  1844 : FFF7;
  1845 : 0019;
  1846 : 0015;
  1847 : 0001;
  1848 : FFEF;
  1849 : 0000;
  184A : 0004;
  184B : FFFB;
  184C : 001C;
  184D : 0014;
  184E : 0015;
  184F : 0015;
  1850 : 000F;
  1851 : 0001;
  1852 : FFE9;
  1853 : 0006;
  1854 : 0008;
  1855 : FFE1;
  1856 : 0002;
  1857 : FFF1;
  1858 : FFEC;
  1859 : FFEF;
  185A : 0007;
  185B : FFF9;
  185C : 0011;
  185D : FFEF;
  185E : 000F;
  185F : FFEE;
  1860 : 0004;
  1861 : FFFB;
  1862 : 0013;
  1863 : 001B;
  1864 : 0017;
  1865 : 0008;
  1866 : FFF9;
  1867 : FFFA;
  1868 : 0003;
  1869 : 000C;
  186A : 0000;
  186B : FFF2;
  186C : 0019;
  186D : FFF2;
  186E : 0012;
  186F : 0015;
  1870 : FFF5;
  1871 : 0012;
  1872 : FFED;
  1873 : FFFD;
  1874 : 000A;
  1875 : FFF1;
  1876 : 000C;
  1877 : 0014;
  1878 : 000E;
  1879 : 000A;
  187A : FFF5;
  187B : 0006;
  187C : 0005;
  187D : FFEC;
  187E : 0004;
  187F : FFF8;
  1880 : FFF5;
  1881 : 0007;
  1882 : 0004;
  1883 : FFFB;
  1884 : FFE7;
  1885 : FFF9;
  1886 : FFEB;
  1887 : FFFD;
  1888 : FFFF;
  1889 : FFFE;
  188A : 0001;
  188B : 000A;
  188C : 001B;
  188D : 0018;
  188E : 0009;
  188F : FFEC;
  1890 : 0006;
  1891 : 0010;
  1892 : 0006;
  1893 : 0006;
  1894 : 000E;
  1895 : 0010;
  1896 : 0006;
  1897 : 0012;
  1898 : FFEF;
  1899 : FFE4;
  189A : 0001;
  189B : FFFC;
  189C : 0002;
  189D : FFF8;
  189E : FFEB;
  189F : FFFF;
  18A0 : FFEE;
  18A1 : 0017;
  18A2 : 0018;
  18A3 : 000F;
  18A4 : 0000;
  18A5 : FFF8;
  18A6 : 0019;
  18A7 : 000B;
  18A8 : FFFA;
  18A9 : 0003;
  18AA : 001D;
  18AB : 001A;
  18AC : FFFA;
  18AD : 0027;
  18AE : 0024;
  18AF : 0026;
  18B0 : 0015;
  18B1 : 0009;
  18B2 : 0001;
  18B3 : 0008;
  18B4 : 0025;
  18B5 : 0022;
  18B6 : 001B;
  18B7 : FFF7;
  18B8 : FFFC;
  18B9 : FFEB;
  18BA : FFFD;
  18BB : FFF0;
  18BC : 0009;
  18BD : 0006;
  18BE : FFEC;
  18BF : FFFF;
  18C0 : FFFE;
  18C1 : FFEF;
  18C2 : FFED;
  18C3 : FFF6;
  18C4 : 0006;
  18C5 : 0012;
  18C6 : 0002;
  18C7 : 0011;
  18C8 : 0006;
  18C9 : FFF6;
  18CA : FFF8;
  18CB : 0016;
  18CC : 000D;
  18CD : 0019;
  18CE : 001B;
  18CF : FFF8;
  18D0 : 0007;
  18D1 : 0001;
  18D2 : FFF8;
  18D3 : 0004;
  18D4 : 000C;
  18D5 : FFF3;
  18D6 : 0015;
  18D7 : 0009;
  18D8 : FFEA;
  18D9 : 0003;
  18DA : 000D;
  18DB : 000D;
  18DC : 0012;
  18DD : FFF0;
  18DE : FFF1;
  18DF : FFE9;
  18E0 : FFF6;
  18E1 : FFED;
  18E2 : FFFD;
  18E3 : 0007;
  18E4 : FFEE;
  18E5 : 0011;
  18E6 : 0003;
  18E7 : 0019;
  18E8 : FFFD;
  18E9 : FFF6;
  18EA : FFF0;
  18EB : FFFE;
  18EC : FFF1;
  18ED : 0016;
  18EE : 0007;
  18EF : 0004;
  18F0 : 001A;
  18F1 : FFFA;
  18F2 : 000B;
  18F3 : FFF8;
  18F4 : FFFE;
  18F5 : 0018;
  18F6 : 0018;
  18F7 : 000B;
  18F8 : FFF3;
  18F9 : FFFD;
  18FA : 0000;
  18FB : 0014;
  18FC : 0008;
  18FD : 0004;
  18FE : FFF0;
  18FF : 0018;
  1900 : FFE7;
  1901 : 000B;
  1902 : FFDD;
  1903 : FFE9;
  1904 : 0004;
  1905 : FFF4;
  1906 : 0000;
  1907 : FFE5;
  1908 : 000E;
  1909 : FFF3;
  190A : FFE5;
  190B : 0003;
  190C : FFE8;
  190D : FFF1;
  190E : FFF3;
  190F : FFEE;
  1910 : 0003;
  1911 : FFFC;
  1912 : FFEF;
  1913 : FFF5;
  1914 : 000A;
  1915 : FFF9;
  1916 : 000F;
  1917 : 0006;
  1918 : FFEC;
  1919 : FFF0;
  191A : 0002;
  191B : 0001;
  191C : 0006;
  191D : FFEA;
  191E : 0003;
  191F : 0015;
  1920 : FFFE;
  1921 : FFF2;
  1922 : 0004;
  1923 : 001B;
  1924 : 000D;
  1925 : 000F;
  1926 : FFEE;
  1927 : FFFA;
  1928 : 0005;
  1929 : 0007;
  192A : FFF3;
  192B : 0006;
  192C : 0000;
  192D : 0012;
  192E : FFF3;
  192F : FFF5;
  1930 : 0000;
  1931 : 0001;
  1932 : FFEE;
  1933 : FFF8;
  1934 : FFF8;
  1935 : 0005;
  1936 : 0009;
  1937 : FFF7;
  1938 : 0004;
  1939 : FFF9;
  193A : FFF0;
  193B : FFF9;
  193C : FFFF;
  193D : 000D;
  193E : FFF7;
  193F : 0019;
  1940 : 0006;
  1941 : 0012;
  1942 : 0019;
  1943 : 0010;
  1944 : 0015;
  1945 : 000D;
  1946 : FFFE;
  1947 : FFEF;
  1948 : FFE9;
  1949 : 000A;
  194A : 0010;
  194B : FFE7;
  194C : FFEF;
  194D : FFE2;
  194E : FFF7;
  194F : 0009;
  1950 : FFFA;
  1951 : FFE8;
  1952 : FFF4;
  1953 : FFED;
  1954 : FFFC;
  1955 : 0012;
  1956 : FFFD;
  1957 : FFE8;
  1958 : FFEB;
  1959 : 000F;
  195A : FFF5;
  195B : 000B;
  195C : 0018;
  195D : 0013;
  195E : 0006;
  195F : FFED;
  1960 : FFF8;
  1961 : 0011;
  1962 : 000B;
  1963 : 0007;
  1964 : FFF6;
  1965 : 0011;
  1966 : FFF3;
  1967 : FFF3;
  1968 : FFFB;
  1969 : FFF8;
  196A : 000F;
  196B : 0013;
  196C : 000D;
  196D : 000E;
  196E : 0015;
  196F : FFF3;
  1970 : 0014;
  1971 : 0011;
  1972 : 0012;
  1973 : 0015;
  1974 : 000E;
  1975 : 0003;
  1976 : FFFE;
  1977 : 001B;
  1978 : FFFF;
  1979 : 000F;
  197A : 0008;
  197B : 0011;
  197C : 0005;
  197D : FFF7;
  197E : FFFF;
  197F : FFE7;
  1980 : FFFE;
  1981 : FFFC;
  1982 : 000B;
  1983 : 001B;
  1984 : 0002;
  1985 : 000C;
  1986 : 0001;
  1987 : FFFE;
  1988 : FFF7;
  1989 : 0011;
  198A : FFEB;
  198B : 0008;
  198C : 0007;
  198D : FFE9;
  198E : 000F;
  198F : FFFA;
  1990 : FFF8;
  1991 : 0000;
  1992 : FFFC;
  1993 : 0004;
  1994 : 0016;
  1995 : 000F;
  1996 : 000B;
  1997 : FFF4;
  1998 : 000F;
  1999 : 0006;
  199A : 000C;
  199B : 000C;
  199C : 0016;
  199D : 0010;
  199E : 000B;
  199F : FFFA;
  19A0 : FFF0;
  19A1 : 000E;
  19A2 : FFFD;
  19A3 : 0004;
  19A4 : FFEA;
  19A5 : FFFA;
  19A6 : FFF3;
  19A7 : FFF4;
  19A8 : FFE6;
  19A9 : FFEE;
  19AA : FFF4;
  19AB : FFEC;
  19AC : FFF4;
  19AD : FFF4;
  19AE : 0004;
  19AF : FFF5;
  19B0 : FFF6;
  19B1 : FFFC;
  19B2 : FFE6;
  19B3 : FFF2;
  19B4 : FFEE;
  19B5 : FFFE;
  19B6 : FFF2;
  19B7 : FFEE;
  19B8 : FFF6;
  19B9 : 000E;
  19BA : FFFD;
  19BB : 001B;
  19BC : FFFF;
  19BD : FFFB;
  19BE : 000B;
  19BF : 0018;
  19C0 : FFF3;
  19C1 : 0009;
  19C2 : FFFA;
  19C3 : FFFE;
  19C4 : FFF7;
  19C5 : 0003;
  19C6 : FFF3;
  19C7 : FFF6;
  19C8 : 0007;
  19C9 : FFF5;
  19CA : 000B;
  19CB : 001D;
  19CC : 0006;
  19CD : 001F;
  19CE : 0014;
  19CF : 0001;
  19D0 : 0021;
  19D1 : 0019;
  19D2 : 0015;
  19D3 : FFFB;
  19D4 : 0017;
  19D5 : FFFA;
  19D6 : 0003;
  19D7 : 0007;
  19D8 : 0012;
  19D9 : 000A;
  19DA : 0014;
  19DB : 0002;
  19DC : FFF4;
  19DD : 000D;
  19DE : 0013;
  19DF : 0004;
  19E0 : FFF1;
  19E1 : 0014;
  19E2 : 0015;
  19E3 : FFFC;
  19E4 : FFF0;
  19E5 : 0005;
  19E6 : FFF7;
  19E7 : FFF3;
  19E8 : FFE7;
  19E9 : FFEE;
  19EA : FFF2;
  19EB : FFFD;
  19EC : 0006;
  19ED : 0007;
  19EE : FFED;
  19EF : FFFD;
  19F0 : FFFC;
  19F1 : FFF7;
  19F2 : FFEA;
  19F3 : FFF2;
  19F4 : 0003;
  19F5 : FFF9;
  19F6 : FFFF;
  19F7 : FFEE;
  19F8 : 0010;
  19F9 : 0013;
  19FA : FFF9;
  19FB : FFFF;
  19FC : 000D;
  19FD : FFEF;
  19FE : 0011;
  19FF : FFF7;
  1A00 : FFFA;
  1A01 : FFF6;
